{
  "version": "1.0",
  "truncation": null,
  "padding": null,
  "added_tokens": [],
  "normalizer": null,
  "pre_tokenizer": {
    "type": "BertPreTokenizer"
  },
  "post_processor": {
    "type": "BertProcessing",
    "sep": [
      "[SEP]",
      1
    ],
    "cls": [
      "[CLS]",
      2
    ]
  },
  "decoder": {
    "type": "WordPiece",
    "prefix": "##",
    "cleanup": true
  },
  "model": {
    "type": "WordPiece",
    "unk_token": "[UNK]",
    "continuing_subword_prefix": "##",
    "max_input_chars_per_word": 4,
    "vocab": {
      "0": 0,
      "1": 1,
      "2": 2,
      "3": 3,
      "4": 4,
      "5": 5,
      "6": 6,
      "7": 7,
      "8": 8,
      "9": 9,
      "a": 10,
      "b": 11,
      "c": 12,
      "d": 13,
      "e": 14,
      "f": 15,
      "##4": 16,
      "##2": 17,
      "##8": 18,
      "##1": 19,
      "##e": 20,
      "##0": 21,
      "##f": 22,
      "##5": 23,
      "##7": 24,
      "##6": 25,
      "##3": 26,
      "##c": 27,
      "##b": 28,
      "##a": 29,
      "##9": 30,
      "##d": 31,
      "##00": 32,
      "000": 33,
      "##10": 34,
      "##80": 35,
      "##55": 36,
      "##aa": 37,
      "0000": 38,
      "##02": 39,
      "##ff": 40,
      "##ed": 41,
      "##06": 42,
      "##14": 43,
      "##be": 44,
      "##03": 45,
      "##79": 46,
      "##73": 47,
      "##26": 48,
      "##16": 49,
      "##c6": 50,
      "##74": 51,
      "##34": 52,
      "##0a": 53,
      "##36": 54,
      "##04": 55,
      "##76": 56,
      "##72": 57,
      "##56": 58,
      "##01": 59,
      "##82": 60,
      "##96": 61,
      "##86": 62,
      "##54": 63,
      "##b4": 64,
      "##84": 65,
      "##f6": 66,
      "##c4": 67,
      "##b6": 68,
      "##d6": 69,
      "##e6": 70,
      "##c9": 71,
      "##89": 72,
      "##7a": 73,
      "##52": 74,
      "##12": 75,
      "##c2": 76,
      "##d4": 77,
      "##f4": 78,
      "##32": 79,
      "##e4": 80,
      "##da": 81,
      "##ca": 82,
      "##b9": 83,
      "##5a": 84,
      "##59": 85,
      "##b2": 86,
      "##8a": 87,
      "##09": 88,
      "##e2": 89,
      "##d2": 90,
      "##e9": 91,
      "##1a": 92,
      "##ba": 93,
      "##f9": 94,
      "##fa": 95,
      "##f2": 96,
      "##d9": 97,
      "##ea": 98,
      "##53": 99,
      "##83": 100,
      "##19": 101,
      "##13": 102,
      "##70": 103,
      "##c3": 104,
      "##f3": 105,
      "##b3": 106,
      "##e3": 107,
      "##d3": 108,
      "0a": 109,
      "##bc": 110,
      "##77": 111,
      "##ec": 112,
      "##b8": 113,
      "##fd": 114,
      "##bd": 115,
      "##78": 116,
      "##5c": 117,
      "##fc": 118,
      "##7c": 119,
      "##1c": 120,
      "##5d": 121,
      "##e8": 122,
      "##7d": 123,
      "##58": 124,
      "##50": 125,
      "##1d": 126,
      "##f8": 127,
      "##b0": 128,
      "##18": 129,
      "02": 130,
      "##f0": 131,
      "##46": 132,
      "##fe": 133,
      "##7e": 134,
      "##51": 135,
      "##5b": 136,
      "##5e": 137,
      "##94": 138,
      "##71": 139,
      "##92": 140,
      "##3a": 141,
      "##f1": 142,
      "##b1": 143,
      "010": 144,
      "##9a": 145,
      "##44": 146,
      "##0c": 147,
      "##8c": 148,
      "##8d": 149,
      "##0d": 150,
      "##66": 151,
      "##fb": 152,
      "##33": 153,
      "32": 154,
      "##7b": 155,
      "##42": 156,
      "##ee": 157,
      "##99": 158,
      "##75": 159,
      "##4a": 160,
      "##cc": 161,
      "##dd": 162,
      "01": 163,
      "0001": 164,
      "##08": 165,
      "##f5": 166,
      "##6a": 167,
      "##e1": 168,
      "4a": 169,
      "82": 170,
      "##bb": 171,
      "72": 172,
      "##93": 173,
      "##62": 174,
      "00": 175,
      "3a": 176,
      "##88": 177,
      "5a": 178,
      "##e0": 179,
      "##f7": 180,
      "62": 181,
      "da": 182,
      "42": 183,
      "##dc": 184,
      "52": 185,
      "7a": 186,
      "##11": 187,
      "b2": 188,
      "fa": 189,
      "22": 190,
      "2a": 191,
      "04": 192,
      "e2": 193,
      "6a": 194,
      "12": 195,
      "ca": 196,
      "f2": 197,
      "a2": 198,
      "92": 199,
      "aa": 200,
      "c2": 201,
      "ba": 202,
      "ea": 203,
      "8a": 204,
      "d2": 205,
      "9a": 206,
      "1a": 207,
      "06": 208,
      "##57": 209,
      "##eb": 210,
      "03": 211,
      "46": 212,
      "##43": 213,
      "66": 214,
      "##9c": 215,
      "a6": 216,
      "56": 217,
      "36": 218,
      "76": 219,
      "16": 220,
      "c6": 221,
      "96": 222,
      "d6": 223,
      "##d8": 224,
      "26": 225,
      "##5f": 226,
      "e6": 227,
      "73": 228,
      "de": 229,
      "86": 230,
      "b6": 231,
      "f6": 232,
      "64": 233,
      "##7f": 234,
      "79": 235,
      "74": 236,
      "83": 237,
      "63": 238,
      "##d0": 239,
      "14": 240,
      "##d1": 241,
      "##81": 242,
      "f3": 243,
      "34": 244,
      "b4": 245,
      "33": 246,
      "43": 247,
      "54": 248,
      "53": 249,
      "a4": 250,
      "ec": 251,
      "24": 252,
      "23": 253,
      "44": 254,
      "c4": 255,
      "##ef": 256,
      "69": 257,
      "d4": 258,
      "93": 259,
      "94": 260,
      "13": 261,
      "f4": 262,
      "e4": 263,
      "84": 264,
      "a3": 265,
      "d3": 266,
      "b3": 267,
      "e3": 268,
      "c3": 269,
      "##b5": 270,
      "bc": 271,
      "59": 272,
      "##e7": 273,
      "49": 274,
      "##e5": 275,
      "##bf": 276,
      "c9": 277,
      "##b7": 278,
      "6d": 279,
      "09": 280,
      "e9": 281,
      "39": 282,
      "a9": 283,
      "f9": 284,
      "99": 285,
      "89": 286,
      "29": 287,
      "080": 288,
      "fc": 289,
      "19": 290,
      "6c": 291,
      "0c": 292,
      "b9": 293,
      "d9": 294,
      "4c": 295,
      "ac": 296,
      "5c": 297,
      "1c": 298,
      "3c": 299,
      "7c": 300,
      "0101": 301,
      "2c": 302,
      "8c": 303,
      "cc": 304,
      "9c": 305,
      "dc": 306,
      "fd": 307,
      "70": 308,
      "80": 309,
      "0108": 310,
      "0d": 311,
      "080a": 312,
      "b8": 313,
      "91": 314,
      "ad": 315,
      "2d": 316,
      "4d": 317,
      "08": 318,
      "61": 319,
      "6e": 320,
      "60": 321,
      "48": 322,
      "9d": 323,
      "10": 324,
      "5d": 325,
      "7d": 326,
      "ed": 327,
      "78": 328,
      "bd": 329,
      "8d": 330,
      "3d": 331,
      "1d": 332,
      "dd": 333,
      "cd": 334,
      "41": 335,
      "31": 336,
      "58": 337,
      "18": 338,
      "68": 339,
      "28": 340,
      "51": 341,
      "21": 342,
      "d8": 343,
      "38": 344,
      "e8": 345,
      "a8": 346,
      "##05": 347,
      "fe": 348,
      "98": 349,
      "5b": 350,
      "71": 351,
      "4e": 352,
      "##d7": 353,
      "f8": 354,
      "88": 355,
      "11": 356,
      "c1": 357,
      "c8": 358,
      "65": 359,
      "77": 360,
      "1e": 361,
      "f1": 362,
      "a1": 363,
      "50": 364,
      "2e": 365,
      "e1": 366,
      "81": 367,
      "d1": 368,
      "##0b": 369,
      "b1": 370,
      "20": 371,
      "ff": 372,
      "05": 373,
      "bed": 374,
      "##0f": 375,
      "##17": 376,
      "##1b": 377,
      "##15": 378,
      "8e": 379,
      "##8e": 380,
      "7e": 381,
      "##07": 382,
      "0e": 383,
      "ae": 384,
      "f0": 385,
      "40": 386,
      "##0e": 387,
      "##1e": 388,
      "3e": 389,
      "be": 390,
      "##8b": 391,
      "30": 392,
      "##87": 393,
      "##8f": 394,
      "9e": 395,
      "##db": 396,
      "##85": 397,
      "##de": 398,
      "##1f": 399,
      "5e": 400,
      "eb": 401,
      "##d5": 402,
      "4b": 403,
      "2b": 404,
      "ee": 405,
      "fb": 406,
      "a0": 407,
      "6f": 408,
      "##df": 409,
      "d7": 410,
      "d0": 411,
      "ab": 412,
      "cb": 413,
      "0b": 414,
      "6b": 415,
      "c0": 416,
      "ce": 417,
      "8b": 418,
      "7b": 419,
      "e0": 420,
      "47": 421,
      "##91": 422,
      "75": 423,
      "90": 424,
      "9b": 425,
      "3b": 426,
      "17": 427,
      "db": 428,
      "bb": 429,
      "b0": 430,
      "1b": 431,
      "07": 432,
      "67": 433,
      "25": 434,
      "de00": 435,
      "bede": 436,
      "##90": 437,
      "37": 438,
      "f5": 439,
      "a7": 440,
      "97": 441,
      "57": 442,
      "27": 443,
      "f7": 444,
      "35": 445,
      "b7": 446,
      "a5": 447,
      "87": 448,
      "e7": 449,
      "c7": 450,
      "4f": 451,
      "55": 452,
      "45": 453,
      "15": 454,
      "95": 455,
      "b5": 456,
      "2f": 457,
      "e5": 458,
      "85": 459,
      "8f": 460,
      "af": 461,
      "c5": 462,
      "1f": 463,
      "d5": 464,
      "0f": 465,
      "9f": 466,
      "bf": 467,
      "5f": 468,
      "ef": 469,
      "7f": 470,
      "3f": 471,
      "df": 472,
      "cf": 473,
      "555": 474,
      "##c0": 475,
      "##aaa": 476,
      "##c1": 477,
      "906": 478,
      "##cb": 479,
      "##c7": 480,
      "##9b": 481,
      "##97": 482,
      "##c8": 483,
      "##9e": 484,
      "##ce": 485,
      "##98": 486,
      "##95": 487,
      "##9d": 488,
      "##c5": 489,
      "##cf": 490,
      "##9f": 491,
      "##cd": 492,
      "414": 493,
      "0110": 494,
      "aaaa": 495,
      "5555": 496,
      "0002": 497,
      "003": 498,
      "906d": 499,
      "0100": 500,
      "002": 501,
      "434": 502,
      "##30": 503,
      "10a": 504,
      "004": 505,
      "##000": 506,
      "##31": 507,
      "##48": 508,
      "##45": 509,
      "##41": 510,
      "##49": 511,
      "##47": 512,
      "##39": 513,
      "##35": 514,
      "001": 515,
      "##4e": 516,
      "##37": 517,
      "##38": 518,
      "##3c": 519,
      "##4c": 520,
      "##40": 521,
      "026": 522,
      "##4b": 523,
      "##4d": 524,
      "##4f": 525,
      "##3e": 526,
      "##3d": 527,
      "##3b": 528,
      "##3f": 529,
      "fff": 530,
      "##20": 531,
      "706": 532,
      "616": 533,
      "4341": 534,
      "##c60": 535,
      "4143": 536,
      "109": 537,
      "6f6": 538,
      "636": 539,
      "656": 540,
      "0032": 541,
      "303": 542,
      "##2d": 543,
      "005b": 544,
      "##018": 545,
      "##22": 546,
      "##23": 547,
      "0210": 548,
      "##2a": 549,
      "##21": 550,
      "696": 551,
      "##25": 552,
      "454": 553,
      "##2e": 554,
      "##24": 555,
      "6d6": 556,
      "##2f": 557,
      "##2b": 558,
      "##29": 559,
      "##2c": 560,
      "##28": 561,
      "726": 562,
      "##27": 563,
      "6e6": 564,
      "0004": 565,
      "746": 566,
      "736": 567,
      "204": 568,
      "006": 569,
      "1aa": 570,
      "313": 571,
      "206": 572,
      "70bc": 573,
      "60ec": 574,
      "646": 575,
      "0a82": 576,
      "ec0a": 577,
      "91b8": 578,
      "b870": 579,
      "bcbe": 580,
      "82be": 581,
      "0a79": 582,
      "036": 583,
      "326": 584,
      "e89": 585,
      "766": 586,
      "666": 587,
      "009": 588,
      "203": 589,
      "##6a0": 590,
      "##6a6": 591,
      "6c6": 592,
      "ef6": 593,
      "##002": 594,
      "676": 595,
      "##420": 596,
      "806": 597,
      "##790": 598,
      "373": 599,
      "484": 600,
      "786": 601,
      "626": 602,
      "802": 603,
      "##990": 604,
      "046": 605,
      "00a": 606,
      "0a02": 607,
      "6d4": 608,
      "312": 609,
      "300": 610,
      "0a00": 611,
      "756": 612,
      "##442": 613,
      "6b4": 614,
      "102": 615,
      "##a4": 616,
      "302": 617,
      "##b90": 618,
      "##c4e": 619,
      "796": 620,
      "202": 621,
      "686": 622,
      "##011": 623,
      "2d4": 624,
      "##0ce": 625,
      "##798": 626,
      "474": 627,
      "652": 628,
      "333": 629,
      "ffff": 630,
      "##590": 631,
      "##c90": 632,
      "776": 633,
      "##c9d": 634,
      "##e8b": 635,
      "##890": 636,
      "4e4": 637,
      "##c48": 638,
      "716": 639,
      "506": 640,
      "##1c0": 641,
      "654": 642,
      "##d90": 643,
      "##e31": 644,
      "##0c7": 645,
      "496": 646,
      "6da": 647,
      "6d2": 648,
      "353": 649,
      "0f4": 650,
      "##e90": 651,
      "##190": 652,
      "##68": 653,
      "514": 654,
      "6b6": 655,
      "436": 656,
      "526": 657,
      "##802": 658,
      "014": 659,
      "##102": 660,
      "182": 661,
      "534": 662,
      "2e6": 663,
      "##fff": 664,
      "455": 665,
      "##f90": 666,
      "536": 667,
      "596": 668,
      "2c2": 669,
      "##0c0": 670,
      "362": 671,
      "6e4": 672,
      "504": 673,
      "466": 674,
      "4f4": 675,
      "574": 676,
      "044": 677,
      "c6a": 678,
      "096": 679,
      "634": 680,
      "336": 681,
      "416": 682,
      "4e6": 683,
      "034": 684,
      "502": 685,
      "446": 686,
      "334": 687,
      "486": 688,
      "016": 689,
      "##088": 690,
      "734": 691,
      "##e30": 692,
      "04a": 693,
      "703": 694,
      "##f31": 695,
      "086": 696,
      "##08e": 697,
      "##c61": 698,
      "653": 699,
      "5f6": 700,
      "##d31": 701,
      "104": 702,
      "f56": 703,
      "366": 704,
      "426": 705,
      "##e3a": 706,
      "0b6": 707,
      "c03": 708,
      "586": 709,
      "354": 710,
      "614": 711,
      "##8de": 712,
      "8010": 713,
      "##d30": 714,
      "5b4": 715,
      "346": 716,
      "##d2d": 717,
      "352": 718,
      "4d6": 719,
      "684": 720,
      "372": 721,
      "473": 722,
      "6d9": 723,
      "2d6": 724,
      "356": 725,
      "##935": 726,
      "376": 727,
      "576": 728,
      "##931": 729,
      "##930": 730,
      "546": 731,
      "316": 732,
      "476": 733,
      "##32d": 734,
      "##801": 735,
      "386": 736,
      "##920": 737,
      "4f6": 738,
      "444": 739,
      "784": 740,
      "6e2": 741,
      "##6b": 742,
      "##1c8": 743,
      "##08f": 744,
      "494": 745,
      "304": 746,
      "4b4": 747,
      "4b6": 748,
      "##0cc": 749,
      "516": 750,
      "c12": 751,
      "012": 752,
      "103": 753,
      "##5ae": 754,
      "512": 755,
      "755": 756,
      "##f30": 757,
      "##101": 758,
      "##505": 759,
      "##803": 760,
      "702": 761,
      "ff6": 762,
      "ff4": 763,
      "d14": 764,
      "##08b": 765,
      "##087": 766,
      "##e1f": 767,
      "556": 768,
      "4d4": 769,
      "5b6": 770,
      "355": 771,
      "306": 772,
      "##0c8": 773,
      "##e38": 774,
      "314": 775,
      "673": 776,
      "584": 777,
      "573": 778,
      "##997": 779,
      "404": 780,
      "##63": 781,
      "##421": 782,
      "782": 783,
      "##085": 784,
      "##8d1": 785,
      "554": 786,
      "1f4": 787,
      "055": 788,
      "7b6": 789,
      "773": 790,
      "##001": 791,
      "##70b": 792,
      "383": 793,
      "114": 794,
      "106": 795,
      "##b20": 796,
      "##61": 797,
      "6f4": 798,
      "##e33": 799,
      "255": 800,
      "054": 801,
      "714": 802,
      "126": 803,
      "456": 804,
      "##331": 805,
      "##01c": 806,
      "##015": 807,
      "##c47": 808,
      "##081": 809,
      "##0c1": 810,
      "236": 811,
      "##0c5": 812,
      "##00c": 813,
      "##1a4": 814,
      "d74": 815,
      "674": 816,
      "##b98": 817,
      "fe6": 818,
      "fe4": 819,
      "##0dc": 820,
      "##f1f": 821,
      "##70d": 822,
      "234": 823,
      "##42c": 824,
      "084": 825,
      "##012": 826,
      "655": 827,
      "226": 828,
      "##1c1": 829,
      "##1ad": 830,
      "##d39": 831,
      "774": 832,
      "##ee5": 833,
      "##090": 834,
      "##be8": 835,
      "##69": 836,
      "##0d0": 837,
      "fed": 838,
      "##42d": 839,
      "##42e": 840,
      "##8ad": 841,
      "566": 842,
      "ff2": 843,
      "704": 844,
      "184": 845,
      "396": 846,
      "196": 847,
      "##c31": 848,
      "936": 849,
      "066": 850,
      "##7a1": 851,
      "fd6": 852,
      "384": 853,
      "##93c": 854,
      "##1a5": 855,
      "f84": 856,
      "694": 857,
      "##c99": 858,
      "##e1e": 859,
      "##422": 860,
      "##320": 861,
      "##938": 862,
      "##778": 863,
      "##939": 864,
      "##9a5": 865,
      "374": 866,
      "1e4": 867,
      "612": 868,
      "4ed": 869,
      "##e99": 870,
      "##d1e": 871,
      "##3ad": 872,
      "##9ad": 873,
      "##5c0": 874,
      "##c46": 875,
      "##bcc": 876,
      "##beb": 877,
      "##322": 878,
      "##925": 879,
      "##130": 880,
      "##5cb": 881,
      "503": 882,
      "##8cd": 883,
      "##995": 884,
      "254": 885,
      "2f6": 886,
      "f06": 887,
      "d84": 888,
      "1b6": 889,
      "##135": 890,
      "##93d": 891,
      "2f4": 892,
      "##0cd": 893,
      "7ed": 894,
      "##e35": 895,
      "##937": 896,
      "##50c": 897,
      "f73": 898,
      "##5a6": 899,
      "##d0b": 900,
      "##0d5": 901,
      "662": 902,
      "##64": 903,
      "c04": 904,
      "##1cc": 905,
      "##f15": 906,
      "##eb7": 907,
      "##8a4": 908,
      "##50d": 909,
      "##ea1": 910,
      "c14": 911,
      "606": 912,
      "##777": 913,
      "4e2": 914,
      "##dc1": 915,
      "##425": 916,
      "##d37": 917,
      "##c49": 918,
      "##92e": 919,
      "##8d0": 920,
      "##d33": 921,
      "##430": 922,
      "##9cb": 923,
      "##e39": 924,
      "a04": 925,
      "926": 926,
      "##0dd": 927,
      "284": 928,
      "##b0c": 929,
      "f03": 930,
      "##8c1": 931,
      "##8a5": 932,
      "##f38": 933,
      "##3a1": 934,
      "##993": 935,
      "##d3e": 936,
      "##b0b": 937,
      "fd4": 938,
      "##bcb": 939,
      "##c4c": 940,
      "bf4": 941,
      "##8c8": 942,
      "##708": 943,
      "##8c0": 944,
      "794": 945,
      "5ba": 946,
      "754": 947,
      "##f57": 948,
      "##fcb": 949,
      "##67": 950,
      "f34": 951,
      "c26": 952,
      "##c30": 953,
      "##b87": 954,
      "c36": 955,
      "##3af": 956,
      "##32e": 957,
      "##195": 958,
      "2e4": 959,
      "##1dc": 960,
      "##1d8": 961,
      "##92c": 962,
      "186": 963,
      "2b4": 964,
      "##9c1": 965,
      "286": 966,
      "##0d1": 967,
      "##c98": 968,
      "##991": 969,
      "##fa0": 970,
      "##105": 971,
      "##be9": 972,
      "##c35": 973,
      "##8cc": 974,
      "fb6": 975,
      "dabe": 976,
      "116": 977,
      "e03": 978,
      "##dd7": 979,
      "594": 980,
      "##e3b": 981,
      "##a0": 982,
      "##131": 983,
      "603": 984,
      "4ada": 985,
      "##c93": 986,
      "##ffe": 987,
      "c02": 988,
      "##ca2": 989,
      "##d17": 990,
      "5d4": 991,
      "d04": 992,
      "##0cb": 993,
      "##b30": 994,
      "e06": 995,
      "772": 996,
      "a06": 997,
      "##dd8": 998,
      "##92d": 999,
      "##dcb": 1000,
      "e16": 1001,
      "##e05": 1002,
      "##bea": 1003,
      "a02": 1004,
      "##92a": 1005,
      "f0a": 1006,
      "##431": 1007,
      "##be0": 1008,
      "##7a8": 1009,
      "##d3b": 1010,
      "2b6": 1011,
      "a12": 1012,
      "##137": 1013,
      "##8dd": 1014,
      "##9c8": 1015,
      "##b17": 1016,
      "056": 1017,
      "##f7f": 1018,
      "##c44": 1019,
      "e74": 1020,
      "##d35": 1021,
      "##8dc": 1022,
      "##5ab": 1023,
      "##a5": 1024,
      "##5c1": 1025,
      "e52": 1026,
      "f96": 1027,
      "2ed": 1028,
      "##a1": 1029,
      "##e8c": 1030,
      "672": 1031,
      "##428": 1032,
      "##be1": 1033,
      "##b97": 1034,
      "7e6": 1035,
      "076": 1036,
      "##fa9": 1037,
      "##dc7": 1038,
      "##fef": 1039,
      "b36": 1040,
      "836": 1041,
      "##b08": 1042,
      "##1dd": 1043,
      "##f0c": 1044,
      "##7e7": 1045,
      "216": 1046,
      "##ad": 1047,
      "##f3d": 1048,
      "c84": 1049,
      "##d22": 1050,
      "##b11": 1051,
      "155": 1052,
      "##815": 1053,
      "862": 1054,
      "##7a2": 1055,
      "##104": 1056,
      "##0d8": 1057,
      "##a6": 1058,
      "##ea0": 1059,
      "##ac": 1060,
      "fb4": 1061,
      "##7eb": 1062,
      "##dc8": 1063,
      "##6e": 1064,
      "##8ac": 1065,
      "##9a4": 1066,
      "##817": 1067,
      "##b1b": 1068,
      "##ea9": 1069,
      "752": 1070,
      "##194": 1071,
      "##9ac": 1072,
      "##5af": 1073,
      "394": 1074,
      "0b4": 1075,
      "##b31": 1076,
      "884": 1077,
      "1e6": 1078,
      "##0db": 1079,
      "##77c": 1080,
      "c06": 1081,
      "##c37": 1082,
      "##d05": 1083,
      "##8d8": 1084,
      "644": 1085,
      "##b33": 1086,
      "##e37": 1087,
      "##508": 1088,
      "##ccb": 1089,
      "f16": 1090,
      "##998": 1091,
      "3c2": 1092,
      "##f3f": 1093,
      "##1d7": 1094,
      "##fe7": 1095,
      "##7a9": 1096,
      "b46": 1097,
      "##5d8": 1098,
      "##3a2": 1099,
      "##705": 1100,
      "602": 1101,
      "e96": 1102,
      "##111": 1103,
      "##1cd": 1104,
      "##f05": 1105,
      "##5bb": 1106,
      "3d4": 1107,
      "##5e5": 1108,
      "382": 1109,
      "##437": 1110,
      "f86": 1111,
      "##ea8": 1112,
      "##bdb": 1113,
      "##7a3": 1114,
      "##c42": 1115,
      "##ca8": 1116,
      "4aa": 1117,
      "##dd1": 1118,
      "##599": 1119,
      "##42f": 1120,
      "##b05": 1121,
      "##e88": 1122,
      "##5d1": 1123,
      "a55": 1124,
      "406": 1125,
      "##a2": 1126,
      "##7ef": 1127,
      "d55": 1128,
      "##775": 1129,
      "##1d1": 1130,
      "##8db": 1131,
      "##771": 1132,
      "##9cd": 1133,
      "##d15": 1134,
      "##515": 1135,
      "5d6": 1136,
      "##ae": 1137,
      "##a8": 1138,
      "152": 1139,
      "##70c": 1140,
      "##b37": 1141,
      "70a": 1142,
      "##c92": 1143,
      "##5d0": 1144,
      "a66": 1145,
      "##185": 1146,
      "##f35": 1147,
      "##e3c": 1148,
      "##e17": 1149,
      "8018": 1150,
      "##7b7": 1151,
      "##9c0": 1152,
      "b55": 1153,
      "a03": 1154,
      "826": 1155,
      "b54": 1156,
      "804": 1157,
      "##d8e": 1158,
      "##924": 1159,
      "472": 1160,
      "##b22": 1161,
      "604": 1162,
      "f02": 1163,
      "##42b": 1164,
      "a54": 1165,
      "##ee7": 1166,
      "##88e": 1167,
      "##427": 1168,
      "e26": 1169,
      "##c45": 1170,
      "##c4a": 1171,
      "##c9b": 1172,
      "##ddf": 1173,
      "##c4d": 1174,
      "##cc7": 1175,
      "##799": 1176,
      "##af": 1177,
      "##bd8": 1178,
      "074": 1179,
      "##51e": 1180,
      "##f1b": 1181,
      "##6c": 1182,
      "fc2": 1183,
      "c96": 1184,
      "##cac": 1185,
      "814": 1186,
      "##f08": 1187,
      "##d0e": 1188,
      "##5bf": 1189,
      "##33d": 1190,
      "##c39": 1191,
      "b04": 1192,
      "##d20": 1193,
      "##fee": 1194,
      "##18c": 1195,
      "##188": 1196,
      "3b4": 1197,
      "f66": 1198,
      "##eae": 1199,
      "##3a0": 1200,
      "##be2": 1201,
      "e84": 1202,
      "##cae": 1203,
      "##65": 1204,
      "##598": 1205,
      "##c3b": 1206,
      "##0d7": 1207,
      "##f0b": 1208,
      "##bef": 1209,
      "##5a2": 1210,
      "##325": 1211,
      "##d87": 1212,
      "##1ac": 1213,
      "ed6": 1214,
      "##ccc": 1215,
      "##f39": 1216,
      "a26": 1217,
      "##fe5": 1218,
      "##51b": 1219,
      "##dc0": 1220,
      "##3a4": 1221,
      "c16": 1222,
      "##333": 1223,
      "7d4": 1224,
      "##ea3": 1225,
      "##fdb": 1226,
      "##1cb": 1227,
      "##181": 1228,
      "##bd7": 1229,
      "e73": 1230,
      "##d3c": 1231,
      "##d8f": 1232,
      "##0cf": 1233,
      "##b9e": 1234,
      "##93b": 1235,
      "##424": 1236,
      "134": 1237,
      "ad4": 1238,
      "##caf": 1239,
      "##42a": 1240,
      "712": 1241,
      "##517": 1242,
      "##be6": 1243,
      "##e98": 1244,
      "6ed": 1245,
      "##fbf": 1246,
      "##60": 1247,
      "b4a": 1248,
      "ef4": 1249,
      "##c38": 1250,
      "##be7": 1251,
      "##1a7": 1252,
      "f14": 1253,
      "##ea2": 1254,
      "136": 1255,
      "##593": 1256,
      "##7dd": 1257,
      "##b35": 1258,
      "bb6": 1259,
      "d26": 1260,
      "##eef": 1261,
      "##f0f": 1262,
      "##1d0": 1263,
      "eed": 1264,
      "e66": 1265,
      "##d3f": 1266,
      "##cab": 1267,
      "##5cc": 1268,
      "##b9a": 1269,
      "e86": 1270,
      "##6d": 1271,
      "5e4": 1272,
      "##8a2": 1273,
      "8b6": 1274,
      "##804": 1275,
      "##58c": 1276,
      "##c3c": 1277,
      "##b1e": 1278,
      "##8a1": 1279,
      "##58f": 1280,
      "##bec": 1281,
      "8078": 1282,
      "##c4f": 1283,
      "986": 1284,
      "##b8e": 1285,
      "##e9b": 1286,
      "##59b": 1287,
      "##6f": 1288,
      "246": 1289,
      "##ee1": 1290,
      "##429": 1291,
      "##881": 1292,
      "##d38": 1293,
      "##bdd": 1294,
      "##f99": 1295,
      "##dce": 1296,
      "##5d7": 1297,
      "3b6": 1298,
      "##f3e": 1299,
      "##d3d": 1300,
      "##a9": 1301,
      "##0de": 1302,
      "##3a8": 1303,
      "984": 1304,
      "1ed": 1305,
      "##7e5": 1306,
      "8b4": 1307,
      "b73": 1308,
      "##b0d": 1309,
      "db4": 1310,
      "##92f": 1311,
      "##103": 1312,
      "##5b5": 1313,
      "##d27": 1314,
      "##133": 1315,
      "904": 1316,
      "##8a0": 1317,
      "##435": 1318,
      "b26": 1319,
      "##b94": 1320,
      "##7ee": 1321,
      "##92b": 1322,
      "##fa1": 1323,
      "##ffd": 1324,
      "744": 1325,
      "d36": 1326,
      "c74": 1327,
      "##dcd": 1328,
      "##e07": 1329,
      "##f37": 1330,
      "##f8c": 1331,
      "##e15": 1332,
      "146": 1333,
      "##e11": 1334,
      "##d0f": 1335,
      "0c2": 1336,
      "##b8b": 1337,
      "##eee": 1338,
      "974": 1339,
      "##d3a": 1340,
      "##e0b": 1341,
      "##a7": 1342,
      "c55": 1343,
      "a46": 1344,
      "##8c5": 1345,
      "0200": 1346,
      "##ca6": 1347,
      "##ecc": 1348,
      "##a3": 1349,
      "##b9b": 1350,
      "f76": 1351,
      "##c3a": 1352,
      "##50b": 1353,
      "##b99": 1354,
      "##dcf": 1355,
      "##324": 1356,
      "##32f": 1357,
      "##9c5": 1358,
      "##019": 1359,
      "60a": 1360,
      "6c2": 1361,
      "9b6": 1362,
      "##b95": 1363,
      "##717": 1364,
      "##f33": 1365,
      "##fd7": 1366,
      "f04": 1367,
      "a56": 1368,
      "ef2": 1369,
      "##922": 1370,
      "##10d": 1371,
      "##423": 1372,
      "##757": 1373,
      "##999": 1374,
      "##7cb": 1375,
      "##ebf": 1376,
      "112": 1377,
      "##43e": 1378,
      "##c4b": 1379,
      "0d0a": 1380,
      "##fdf": 1381,
      "##b2b": 1382,
      "##b91": 1383,
      "##3a6": 1384,
      "##b3c": 1385,
      "##7bb": 1386,
      "##cc0": 1387,
      "ad6": 1388,
      "d96": 1389,
      "eb4": 1390,
      "##f17": 1391,
      "5e6": 1392,
      "##19c": 1393,
      "7f4": 1394,
      "##1c5": 1395,
      "a34": 1396,
      "##ea7": 1397,
      "##7cc": 1398,
      "e56": 1399,
      "##d8b": 1400,
      "##ca0": 1401,
      "b84": 1402,
      "##d1b": 1403,
      "bb4": 1404,
      "a84": 1405,
      "##1db": 1406,
      "402": 1407,
      "##ffc": 1408,
      "##f98": 1409,
      "0e6": 1410,
      "ce4": 1411,
      "296": 1412,
      "##eb5": 1413,
      "##9a2": 1414,
      "b03": 1415,
      "f26": 1416,
      "##b0f": 1417,
      "##c41": 1418,
      "cf4": 1419,
      "##c43": 1420,
      "##3ae": 1421,
      "##138": 1422,
      "##e92": 1423,
      "256": 1424,
      "##f3c": 1425,
      "b94": 1426,
      "##b81": 1427,
      "be4": 1428,
      "7e4": 1429,
      "##5c8": 1430,
      "##ee0": 1431,
      "##18d": 1432,
      "##327": 1433,
      "##10c": 1434,
      "3e6": 1435,
      "c34": 1436,
      "fe2": 1437,
      "6f2": 1438,
      "##8d7": 1439,
      "c86": 1440,
      "##1d5": 1441,
      "##b92": 1442,
      "##794": 1443,
      "##bc0": 1444,
      "ee4": 1445,
      "##ec0": 1446,
      "174": 1447,
      "##bb5": 1448,
      "##7d7": 1449,
      "##fcc": 1450,
      "##ecd": 1451,
      "##f3b": 1452,
      "214": 1453,
      "d06": 1454,
      "946": 1455,
      "##923": 1456,
      "##5c7": 1457,
      "0f6": 1458,
      "0d4": 1459,
      "274": 1460,
      "##c63": 1461,
      "##7ae": 1462,
      "##b25": 1463,
      "955": 1464,
      "a86": 1465,
      "##bee": 1466,
      "##191": 1467,
      "##feb": 1468,
      "ed4": 1469,
      "##7bf": 1470,
      "##eab": 1471,
      "##eeb": 1472,
      "e04": 1473,
      "##58e": 1474,
      "266": 1475,
      "af4": 1476,
      "##b39": 1477,
      "##fa8": 1478,
      "a36": 1479,
      "##81f": 1480,
      "f36": 1481,
      "##ab": 1482,
      "ab6": 1483,
      "996": 1484,
      "##b23": 1485,
      "##bc1": 1486,
      "##b85": 1487,
      "ab4": 1488,
      "b02": 1489,
      "a62": 1490,
      "##b2a": 1491,
      "##b3d": 1492,
      "##507": 1493,
      "##8a6": 1494,
      "##88f": 1495,
      "##eaf": 1496,
      "##78c": 1497,
      "##b07": 1498,
      "##7cd": 1499,
      "##796": 1500,
      "##b15": 1501,
      "##b2d": 1502,
      "##3ac": 1503,
      "##888": 1504,
      "##f9f": 1505,
      "e0a": 1506,
      "873": 1507,
      "##805": 1508,
      "##592": 1509,
      "##99e": 1510,
      "052": 1511,
      "934": 1512,
      "##c3e": 1513,
      "##bd0": 1514,
      "##50e": 1515,
      "bd4": 1516,
      "##1a6": 1517,
      "##5a4": 1518,
      "ee6": 1519,
      "##b8c": 1520,
      "##b2c": 1521,
      "##f5f": 1522,
      "##b21": 1523,
      "##d85": 1524,
      "##81e": 1525,
      "e76": 1526,
      "d34": 1527,
      "##cad": 1528,
      "872": 1529,
      "##809": 1530,
      "##ca9": 1531,
      "##e93": 1532,
      "##e0f": 1533,
      "##199": 1534,
      "##7a0": 1535,
      "bd6": 1536,
      "##ccf": 1537,
      "##7a7": 1538,
      "##70f": 1539,
      "##5a1": 1540,
      "##831": 1541,
      "##ddd": 1542,
      "##5e7": 1543,
      "##929": 1544,
      "##1a0": 1545,
      "##ec1": 1546,
      "ae4": 1547,
      "##1a9": 1548,
      "##c33": 1549,
      "##588": 1550,
      "##004": 1551,
      "##e97": 1552,
      "c66": 1553,
      "##d1f": 1554,
      "##32a": 1555,
      "##32c": 1556,
      "b34": 1557,
      "##795": 1558,
      "##707": 1559,
      "##79a": 1560,
      "##7c5": 1561,
      "##e3f": 1562,
      "##70e": 1563,
      "c73": 1564,
      "f55": 1565,
      "##328": 1566,
      "##8cb": 1567,
      "##d07": 1568,
      "966": 1569,
      "b56": 1570,
      "8f6": 1571,
      "##8a9": 1572,
      "##78d": 1573,
      "276": 1574,
      "##fdd": 1575,
      "##f0e": 1576,
      "##511": 1577,
      "##e9a": 1578,
      "##d81": 1579,
      "##ddb": 1580,
      "e02": 1581,
      "##b3b": 1582,
      "##e0e": 1583,
      "##bb7": 1584,
      "##51f": 1585,
      "de4": 1586,
      "ced": 1587,
      "##b27": 1588,
      "##cc1": 1589,
      "##59f": 1590,
      "##ead": 1591,
      "7f6": 1592,
      "##ea5": 1593,
      "a14": 1594,
      "##323": 1595,
      "##591": 1596,
      "##5a3": 1597,
      "973": 1598,
      "##f1e": 1599,
      "##5ad": 1600,
      "##ca3": 1601,
      "##e3e": 1602,
      "834": 1603,
      "482": 1604,
      "916": 1605,
      "##5ce": 1606,
      "d86": 1607,
      "fda": 1608,
      "##fad": 1609,
      "40a": 1610,
      "##9ab": 1611,
      "##b29": 1612,
      "##7d8": 1613,
      "##f9d": 1614,
      "##f9b": 1615,
      "##fbb": 1616,
      "##dd0": 1617,
      "##cce": 1618,
      "##3a5": 1619,
      "dd6": 1620,
      "3ed": 1621,
      "##1a2": 1622,
      "0d6": 1623,
      "##be3": 1624,
      "##dd5": 1625,
      "903": 1626,
      "954": 1627,
      "b12": 1628,
      "914": 1629,
      "##bd1": 1630,
      "e14": 1631,
      "##80c": 1632,
      "3d6": 1633,
      "5f4": 1634,
      "##7db": 1635,
      "##1a1": 1636,
      "902": 1637,
      "##e85": 1638,
      "8d4": 1639,
      "##e81": 1640,
      "##ea4": 1641,
      "##7d5": 1642,
      "##715": 1643,
      "##8d5": 1644,
      "##788": 1645,
      "e54": 1646,
      "cf6": 1647,
      "##7c0": 1648,
      "##b0e": 1649,
      "##330": 1650,
      "##e1b": 1651,
      "##b3e": 1652,
      "##99d": 1653,
      "##b2e": 1654,
      "##7a5": 1655,
      "##6a2": 1656,
      "##b2f": 1657,
      "##7af": 1658,
      "##be4": 1659,
      "eb6": 1660,
      "##50f": 1661,
      "8d6": 1662,
      "##0df": 1663,
      "e55": 1664,
      "##79d": 1665,
      "##7e0": 1666,
      "##439": 1667,
      "##b38": 1668,
      "##eac": 1669,
      "##ec5": 1670,
      "##fc5": 1671,
      "2f2": 1672,
      "##8a3": 1673,
      "##fd5": 1674,
      "##5a5": 1675,
      "##19a": 1676,
      "##1c7": 1677,
      "cb6": 1678,
      "cb4": 1679,
      "##f92": 1680,
      "##581": 1681,
      "##5cd": 1682,
      "cd4": 1683,
      "##71b": 1684,
      "f54": 1685,
      "##5a7": 1686,
      "##887": 1687,
      "##7e1": 1688,
      "##587": 1689,
      "c46": 1690,
      "##928": 1691,
      "##fb7": 1692,
      "3f6": 1693,
      "f74": 1694,
      "154": 1695,
      "##f11": 1696,
      "aed": 1697,
      "7c2": 1698,
      "##f8f": 1699,
      "##921": 1700,
      "##792": 1701,
      "##597": 1702,
      "##115": 1703,
      "b14": 1704,
      "##c91": 1705,
      "d02": 1706,
      "073": 1707,
      "173": 1708,
      "##5dc": 1709,
      "##5a9": 1710,
      "##ccd": 1711,
      "##197": 1712,
      "##7a4": 1713,
      "##329": 1714,
      "##99f": 1715,
      "##f8b": 1716,
      "##fcf": 1717,
      "##7ad": 1718,
      "##78b": 1719,
      "##5df": 1720,
      "##c40": 1721,
      "##f93": 1722,
      "f94": 1723,
      "##e9c": 1724,
      "##ddc": 1725,
      "##fd0": 1726,
      "##711": 1727,
      "##198": 1728,
      "a16": 1729,
      "1d6": 1730,
      "0e4": 1731,
      "##e91": 1732,
      "##b9f": 1733,
      "##f85": 1734,
      "##dc5": 1735,
      "##585": 1736,
      "##108": 1737,
      "##dde": 1738,
      "##b9d": 1739,
      "273": 1740,
      "ded": 1741,
      "c56": 1742,
      "##1ce": 1743,
      "##c3f": 1744,
      "##5b7": 1745,
      "212": 1746,
      "##bd5": 1747,
      "##8a8": 1748,
      "##77d": 1749,
      "##59a": 1750,
      "##bcd": 1751,
      "7b4": 1752,
      "d16": 1753,
      "##109": 1754,
      "##bbb": 1755,
      "##3ab": 1756,
      "5ed": 1757,
      "9b4": 1758,
      "##fc1": 1759,
      "5aa": 1760,
      "##be5": 1761,
      "##f3a": 1762,
      "886": 1763,
      "##fab": 1764,
      "e34": 1765,
      "##1a8": 1766,
      "##192": 1767,
      "##b9c": 1768,
      "854": 1769,
      "##bdf": 1770,
      "##5e0": 1771,
      "082": 1772,
      "166": 1773,
      "##9a6": 1774,
      "ae6": 1775,
      "b66": 1776,
      "d56": 1777,
      "a96": 1778,
      "##c95": 1779,
      "1d4": 1780,
      "##e3d": 1781,
      "##59e": 1782,
      "##32b": 1783,
      "##8ab": 1784,
      "##13c": 1785,
      "9e4": 1786,
      "##7cf": 1787,
      "582": 1788,
      "##79b": 1789,
      "##7c1": 1790,
      "##ca4": 1791,
      "874": 1792,
      "##321": 1793,
      "896": 1794,
      "b16": 1795,
      "##e87": 1796,
      "##fe0": 1797,
      "##58d": 1798,
      "##5c5": 1799,
      "##fc7": 1800,
      "##1df": 1801,
      "##f9e": 1802,
      "db6": 1803,
      "##5eb": 1804,
      "df4": 1805,
      "##f88": 1806,
      "##9a8": 1807,
      "##1a3": 1808,
      "##b93": 1809,
      "##b88": 1810,
      "403": 1811,
      "##7df": 1812,
      "##e95": 1813,
      "##18b": 1814,
      "e46": 1815,
      "##81b": 1816,
      "##791": 1817,
      "976": 1818,
      "##79f": 1819,
      "##19d": 1820,
      "##cc5": 1821,
      "##faf": 1822,
      "##885": 1823,
      "572": 1824,
      "d46": 1825,
      "##e9f": 1826,
      "faa": 1827,
      "##8ae": 1828,
      "##58b": 1829,
      "##9a1": 1830,
      "##b8d": 1831,
      "866": 1832,
      "f46": 1833,
      "##b3f": 1834,
      "##c3d": 1835,
      "956": 1836,
      "b86": 1837,
      "##fcd": 1838,
      "##b24": 1839,
      "##595": 1840,
      "9e6": 1841,
      "##3a9": 1842,
      "094": 1843,
      "##5d5": 1844,
      "##d28": 1845,
      "##ece": 1846,
      "ada": 1847,
      "##8df": 1848,
      "##793": 1849,
      "##b28": 1850,
      "7d6": 1851,
      "##9ae": 1852,
      "803": 1853,
      "c54": 1854,
      "##ca5": 1855,
      "##5db": 1856,
      "##19b": 1857,
      "##e9d": 1858,
      "##bcf": 1859,
      "##bbf": 1860,
      "##b8f": 1861,
      "##b3a": 1862,
      "##7c7": 1863,
      "##fb5": 1864,
      "##f07": 1865,
      "##ecb": 1866,
      "##71e": 1867,
      "##bce": 1868,
      "##77e": 1869,
      "8e4": 1870,
      "be6": 1871,
      "##fd8": 1872,
      "##c9e": 1873,
      "846": 1874,
      "9da": 1875,
      "##ca1": 1876,
      "##18e": 1877,
      "##835": 1878,
      "##1ae": 1879,
      "b96": 1880,
      "816": 1881,
      "##18f": 1882,
      "##fdc": 1883,
      "##bc8": 1884,
      "9d6": 1885,
      "1f6": 1886,
      "##7ab": 1887,
      "a82": 1888,
      "##71f": 1889,
      "e36": 1890,
      "##193": 1891,
      "##187": 1892,
      "##9a7": 1893,
      "856": 1894,
      "b74": 1895,
      "452": 1896,
      "##bc7": 1897,
      "##c94": 1898,
      "##e8f": 1899,
      "2e2": 1900,
      "##fae": 1901,
      "##13d": 1902,
      "##594": 1903,
      "##9a9": 1904,
      "##c9a": 1905,
      "##9c7": 1906,
      "9d4": 1907,
      "##bde": 1908,
      "##830": 1909,
      "bf6": 1910,
      "##8ce": 1911,
      "##7d0": 1912,
      "##ca7": 1913,
      "##88b": 1914,
      "##75f": 1915,
      "##e94": 1916,
      "##83a": 1917,
      "##7dc": 1918,
      "b06": 1919,
      "##77f": 1920,
      "##77b": 1921,
      "##927": 1922,
      "##5b1": 1923,
      "##e8e": 1924,
      "072": 1925,
      "##c9c": 1926,
      "##bc5": 1927,
      "##93e": 1928,
      "ec2": 1929,
      "##8a7": 1930,
      "8e6": 1931,
      "af6": 1932,
      "##ec7": 1933,
      "1b4": 1934,
      "##ea6": 1935,
      "e72": 1936,
      "##fa2": 1937,
      "##59d": 1938,
      "344": 1939,
      "##1de": 1940,
      "##7b5": 1941,
      "##781": 1942,
      "##5a8": 1943,
      "##1ab": 1944,
      "##b1f": 1945,
      "##fa4": 1946,
      "156": 1947,
      "##fa3": 1948,
      "855": 1949,
      "##d2e": 1950,
      "##ec8": 1951,
      "##cc8": 1952,
      "##79c": 1953,
      "##e8d": 1954,
      "f82": 1955,
      "##785": 1956,
      "##10a": 1957,
      "a4a": 1958,
      "##e9e": 1959,
      "##5cf": 1960,
      "294": 1961,
      "##83c": 1962,
      "##93f": 1963,
      "##1cf": 1964,
      "##8af": 1965,
      "##89c": 1966,
      "a74": 1967,
      "##fce": 1968,
      "##5e1": 1969,
      "##ecf": 1970,
      "##5ac": 1971,
      "##797": 1972,
      "##19e": 1973,
      "##6a1": 1974,
      "##7a6": 1975,
      "##7d1": 1976,
      "##787": 1977,
      "d03": 1978,
      "3e4": 1979,
      "##5ef": 1980,
      "##7de": 1981,
      "##59c": 1982,
      "##3a7": 1983,
      "##5ee": 1984,
      "##f91": 1985,
      "##9a0": 1986,
      "d66": 1987,
      "##c97": 1988,
      "##9ce": 1989,
      "a76": 1990,
      "##1af": 1991,
      "##13f": 1992,
      "##c6a": 1993,
      "##f97": 1994,
      "##fde": 1995,
      "##7ce": 1996,
      "9f4": 1997,
      "##79e": 1998,
      "##fa5": 1999,
      "b76": 2000,
      "##3a3": 2001,
      "##ffb": 2002,
      "##7ac": 2003,
      "##9af": 2004,
      "0ed": 2005,
      "##5a0": 2006,
      "##fd1": 2007,
      "##f0d": 2008,
      "##10b": 2009,
      "##5de": 2010,
      "d73": 2011,
      "##99b": 2012,
      "##11b": 2013,
      "##99c": 2014,
      "##335": 2015,
      "##f94": 2016,
      "##8c7": 2017,
      "8f4": 2018,
      "##f8e": 2019,
      "##d2f": 2020,
      "##833": 2021,
      "544": 2022,
      "##bdc": 2023,
      "ce6": 2024,
      "##78e": 2025,
      "a94": 2026,
      "##f9c": 2027,
      "cd6": 2028,
      "##fac": 2029,
      "dd4": 2030,
      "##5dd": 2031,
      "##fa6": 2032,
      "##fa7": 2033,
      "##438": 2034,
      "##f9a": 2035,
      "##106": 2036,
      "##f95": 2037,
      "##9cf": 2038,
      "##9a3": 2039,
      "d54": 2040,
      "##c9f": 2041,
      "9f6": 2042,
      "d76": 2043,
      "##8cf": 2044,
      "262": 2045,
      "##838": 2046,
      "50a": 2047,
      "##338": 2048,
      "876": 2049,
      "3f4": 2050,
      "##d29": 2051,
      "a73": 2052,
      "##017": 2053,
      "c76": 2054,
      "8ed": 2055,
      "d94": 2056,
      "f52": 2057,
      "b82": 2058,
      "##c65": 2059,
      "eda": 2060,
      "##fc8": 2061,
      "##13a": 2062,
      "894": 2063,
      "##19f": 2064,
      "9ed": 2065,
      "##f81": 2066,
      "##fe1": 2067,
      "##895": 2068,
      "6aa": 2069,
      "762": 2070,
      "##f87": 2071,
      "176": 2072,
      "682": 2073,
      "a0a": 2074,
      "##d99": 2075,
      "##57f": 2076,
      "282": 2077,
      "462": 2078,
      "##78f": 2079,
      "##d23": 2080,
      "##337": 2081,
      "852": 2082,
      "0aa": 2083,
      "##7c8": 2084,
      "##f8d": 2085,
      "1e2": 2086,
      "##139": 2087,
      "de6": 2088,
      "e62": 2089,
      "##80a": 2090,
      "##c69": 2091,
      "0008": 2092,
      "df6": 2093,
      "##fc0": 2094,
      "##01a": 2095,
      "5e2": 2096,
      "8e2": 2097,
      "7e2": 2098,
      "562": 2099,
      "##c6d": 2100,
      "1c2": 2101,
      "062": 2102,
      "##83d": 2103,
      "##808": 2104,
      "##c62": 2105,
      "fba": 2106,
      "c94": 2107,
      "be2": 2108,
      "##837": 2109,
      "##ff5": 2110,
      "194": 2111,
      "##839": 2112,
      "##d97": 2113,
      "##ffa": 2114,
      "##117": 2115,
      "b0a": 2116,
      "eaa": 2117,
      "##6a9": 2118,
      "daa": 2119,
      "##107": 2120,
      "##33f": 2121,
      "64a": 2122,
      "bda": 2123,
      "972": 2124,
      "##d2c": 2125,
      "##10f": 2126,
      "##339": 2127,
      "252": 2128,
      "##d25": 2129,
      "24a": 2130,
      "##89e": 2131,
      "ac2": 2132,
      "##00a": 2133,
      "##535": 2134,
      "##01e": 2135,
      "##006": 2136,
      "##894": 2137,
      "##d2b": 2138,
      "e82": 2139,
      "##005": 2140,
      "5c2": 2141,
      "##83e": 2142,
      "##d2a": 2143,
      "14a": 2144,
      "##806": 2145,
      "ee2": 2146,
      "##33e": 2147,
      "272": 2148,
      "##01f": 2149,
      "952": 2150,
      "##c66": 2151,
      "20a": 2152,
      "##d92": 2153,
      "162": 2154,
      "172": 2155,
      "##c68": 2156,
      "552": 2157,
      "##6a7": 2158,
      "a52": 2159,
      "e94": 2160,
      "9e2": 2161,
      "##893": 2162,
      "##c6e": 2163,
      "994": 2164,
      "4c2": 2165,
      "##6a8": 2166,
      "##80d": 2167,
      "##33c": 2168,
      "##6ae": 2169,
      "##ff9": 2170,
      "bf2": 2171,
      "##89f": 2172,
      "##d9e": 2173,
      "##013": 2174,
      "##003": 2175,
      "##10e": 2176,
      "##d93": 2177,
      "##6a4": 2178,
      "##ff7": 2179,
      "##c6c": 2180,
      "##6af": 2181,
      "##01d": 2182,
      "##c6f": 2183,
      "##d24": 2184,
      "##43d": 2185,
      "a72": 2186,
      "##009": 2187,
      "##13e": 2188,
      "5da": 2189,
      "##ff6": 2190,
      "8c2": 2191,
      "##6a5": 2192,
      "3f2": 2193,
      "##807": 2194,
      "001e": 2195,
      "##6ad": 2196,
      "##6a3": 2197,
      "b72": 2198,
      "##80e": 2199,
      "##89d": 2200,
      "90a": 2201,
      "4f2": 2202,
      "0e2": 2203,
      "30a": 2204,
      "7da": 2205,
      "##898": 2206,
      "982": 2207,
      "c0a": 2208,
      "##ff3": 2209,
      "##c67": 2210,
      "##c64": 2211,
      "34a": 2212,
      "0f2": 2213,
      "##13b": 2214,
      "##d98": 2215,
      "##891": 2216,
      "aaa": 2217,
      "d0a": 2218,
      "2aa": 2219,
      "##897": 2220,
      "4da": 2221,
      "3da": 2222,
      "84a": 2223,
      "cc2": 2224,
      "8ba": 2225,
      "##43f": 2226,
      "##008": 2227,
      "4ba": 2228,
      "##d9b": 2229,
      "f62": 2230,
      "##c6b": 2231,
      "c62": 2232,
      "2da": 2233,
      "44a": 2234,
      "c82": 2235,
      "##ff4": 2236,
      "##d9f": 2237,
      "f12": 2238,
      "882": 2239,
      "812": 2240,
      "409": 2241,
      "##43c": 2242,
      "ae2": 2243,
      "ce2": 2244,
      "412": 2245,
      "f72": 2246,
      "##d9d": 2247,
      "bc2": 2248,
      "d12": 2249,
      "##892": 2250,
      "b52": 2251,
      "c4a": 2252,
      "c72": 2253,
      "caa": 2254,
      "eba": 2255,
      "8f2": 2256,
      "962": 2257,
      "7aa": 2258,
      "##ff2": 2259,
      "e4a": 2260,
      "baa": 2261,
      "##11e": 2262,
      "##89a": 2263,
      "##d21": 2264,
      "9aa": 2265,
      "912": 2266,
      "d62": 2267,
      "5f2": 2268,
      "##6ac": 2269,
      "##d95": 2270,
      "e12": 2271,
      "##33b": 2272,
      "##80f": 2273,
      "##80b": 2274,
      "0da": 2275,
      "1ba": 2276,
      "94a": 2277,
      "74a": 2278,
      "8da": 2279,
      "6ba": 2280,
      "80a": 2281,
      "##ff1": 2282,
      "8aa": 2283,
      "d82": 2284,
      "##d91": 2285,
      "f4a": 2286,
      "##899": 2287,
      "aba": 2288,
      "##ff8": 2289,
      "1f2": 2290,
      "##6ab": 2291,
      "##43b": 2292,
      "d52": 2293,
      "9ba": 2294,
      "##89b": 2295,
      "af2": 2296,
      "dc2": 2297,
      "dba": 2298,
      "2ba": 2299,
      "3aa": 2300,
      "0ba": 2301,
      "cf2": 2302,
      "d4a": 2303,
      "cba": 2304,
      "7f2": 2305,
      "c52": 2306,
      "##83b": 2307,
      "##83f": 2308,
      "##d9a": 2309,
      "54a": 2310,
      "##11f": 2311,
      "b62": 2312,
      "##d94": 2313,
      "9c2": 2314,
      "dda": 2315,
      "a09": 2316,
      "b44": 2317,
      "6572": 2318,
      "1da": 2319,
      "##d9c": 2320,
      "##ff0": 2321,
      "de2": 2322,
      "df2": 2323,
      "cda": 2324,
      "d72": 2325,
      "7ba": 2326,
      "3ba": 2327,
      "##53f": 2328,
      "##01b": 2329,
      "244": 2330,
      "9f2": 2331,
      "##53e": 2332,
      "3e2": 2333,
      "944": 2334,
      "##539": 2335,
      "bba": 2336,
      "##533": 2337,
      "909": 2338,
      "a44": 2339,
      "309": 2340,
      "809": 2341,
      "##00f": 2342,
      "##531": 2343,
      "##00d": 2344,
      "##00b": 2345,
      "##007": 2346,
      "0020": 2347,
      "509": 2348,
      "##53b": 2349,
      "##530": 2350,
      "##53c": 2351,
      "144": 2352,
      "##537": 2353,
      "e44": 2354,
      "f44": 2355,
      "c44": 2356,
      "0800": 2357,
      "##53a": 2358,
      "609": 2359,
      "b09": 2360,
      "f09": 2361,
      "##00e": 2362,
      "844": 2363,
      "c09": 2364,
      "d09": 2365,
      "209": 2366,
      "##538": 2367,
      "709": 2368,
      "##53d": 2369,
      "4141": 2370,
      "d44": 2371,
      "e09": 2372,
      "b2c9": 2373,
      "c9be": 2374,
      "0003": 2375,
      "7061": 2376,
      "0077": 2377,
      "6164": 2378,
      "0006": 2379,
      "2000": 2380,
      "6400": 2381,
      "0477": 2382,
      "7770": 2383,
      "0300": 2384,
      "8370": 2385,
      "7066": 2386,
      "66a6": 2387,
      "ef69": 2388,
      "70ef": 2389,
      "69e2": 2390,
      "0303": 2391,
      "025c": 2392,
      "8000": 2393,
      "1000": 2394,
      "8064": 2395,
      "16a0": 2396,
      "6e74": 2397,
      "0ad7": 2398,
      "0ac6": 2399,
      "1703": 2400,
      "0014": 2401,
      "0c60": 2402,
      "8c60": 2403,
      "6f6e": 2404,
      "1691": 2405,
      "cc60": 2406,
      "4c60": 2407,
      "5691": 2408,
      "d691": 2409,
      "9691": 2410,
      "0600": 2411,
      "636f": 2412,
      "001c": 2413,
      "0204": 2414,
      "0ac1": 2415,
      "0a1a": 2416,
      "0080": 2417,
      "05b4": 2418,
      "83ca": 2419,
      "7365": 2420,
      "ff02": 2421,
      "aa00": 2422,
      "656e": 2423,
      "0500": 2424,
      "0a5a": 2425,
      "0005": 2426,
      "b401": 2427,
      "2800": 2428,
      "a900": 2429,
      "7373": 2430,
      "0260": 2431,
      "0261": 2432,
      "1c00": 2433,
      "025e": 2434,
      "7665": 2435,
      "0a73": 2436,
      "6365": 2437,
      "3a20": 2438,
      "2532": 2439,
      "696e": 2440,
      "10aa": 2441,
      "ab00": 2442,
      "4100": 2443,
      "025d": 2444,
      "0048": 2445,
      "6f6d": 2446,
      "10a9": 2447,
      "ac00": 2448,
      "025f": 2449,
      "eb00": 2450,
      "fff3": 2451,
      "3232": 2452,
      "0a7c": 2453,
      "6f72": 2454,
      "003a": 2455,
      "0105": 2456,
      "a800": 2457,
      "8028": 2458,
      "80f8": 2459,
      "0023": 2460,
      "2798": 2461,
      "6e73": 2462,
      "10ab": 2463,
      "3031": 2464,
      "3230": 2465,
      "000c": 2466,
      "7465": 2467,
      "6b41": 2468,
      "6d65": 2469,
      "cb10": 2470,
      "0afd": 2471,
      "10ac": 2472,
      "0022": 2473,
      "14eb": 2474,
      "737b": 2475,
      "415d": 2476,
      "12a4": 2477,
      "7573": 2478,
      "10ce": 2479,
      "0021": 2480,
      "ce8b": 2481,
      "2112": 2482,
      "a442": 2483,
      "1c48": 2484,
      "ad00": 2485,
      "2046": 2486,
      "4543": 2487,
      "0c00": 2488,
      "7780": 2489,
      "10a8": 2490,
      "0400": 2491,
      "0262": 2492,
      "6173": 2493,
      "c790": 2494,
      "4c9d": 2495,
      "0a59": 2496,
      "a700": 2497,
      "ff00": 2498,
      "80c7": 2499,
      "1aa4": 2500,
      "7374": 2501,
      "0603": 2502,
      "0a0f": 2503,
      "9dbe": 2504,
      "7c4e": 2505,
      "4542": 2506,
      "0070": 2507,
      "3032": 2508,
      "10ad": 2509,
      "4648": 2510,
      "3233": 2511,
      "4545": 2512,
      "797e": 2513,
      "4245": 2514,
      "4145": 2515,
      "036e": 2516,
      "004c": 2517,
      "7273": 2518,
      "4846": 2519,
      "4641": 2520,
      "3231": 2521,
      "2400": 2522,
      "6465": 2523,
      "7276": 2524,
      "21f0": 2525,
      "0024": 2526,
      "a600": 2527,
      "10a7": 2528,
      "1aa6": 2529,
      "7c61": 2530,
      "004b": 2531,
      "0050": 2532,
      "004d": 2533,
      "8011": 2534,
      "6174": 2535,
      "004a": 2536,
      "0a51": 2537,
      "0405": 2538,
      "026e": 2539,
      "0049": 2540,
      "3120": 2541,
      "0402": 2542,
      "000e": 2543,
      "0a06": 2544,
      "82c4": 2545,
      "004e": 2546,
      "f382": 2547,
      "616e": 2548,
      "0007": 2549,
      "3130": 2550,
      "002c": 2551,
      "0af5": 2552,
      "0201": 2553,
      "6c65": 2554,
      "3266": 2555,
      "2e31": 2556,
      "026d": 2557,
      "9000": 2558,
      "0104": 2559,
      "a500": 2560,
      "fffa": 2561,
      "001d": 2562,
      "3136": 2563,
      "2d2d": 2564,
      "c00c": 2565,
      "0017": 2566,
      "696f": 2567,
      "0220": 2568,
      "2032": 2569,
      "0047": 2570,
      "10a6": 2571,
      "1aa0": 2572,
      "616d": 2573,
      "5cbe": 2574,
      "0010": 2575,
      "6163": 2576,
      "0a68": 2577,
      "3132": 2578,
      "f05c": 2579,
      "3100": 2580,
      "2030": 2581,
      "0054": 2582,
      "3262": 2583,
      "7400": 2584,
      "07f0": 2585,
      "3007": 2586,
      "f3be": 2587,
      "baf3": 2588,
      "1500": 2589,
      "deba": 2590,
      "0103": 2591,
      "6f6f": 2592,
      "88de": 2593,
      "6e65": 2594,
      "722d": 2595,
      "004f": 2596,
      "3220": 2597,
      "046e": 2598,
      "ae00": 2599,
      "8c00": 2600,
      "2900": 2601,
      "0019": 2602,
      "8d00": 2603,
      "6963": 2604,
      "fa92": 2605,
      "32e8": 2606,
      "2c20": 2607,
      "2063": 2608,
      "92c0": 2609,
      "0009": 2610,
      "0027": 2611,
      "6e67": 2612,
      "026f": 2613,
      "2e32": 2614,
      "0076": 2615,
      "10a5": 2616,
      "0078": 2617,
      "1eff": 2618,
      "8900": 2619,
      "a400": 2620,
      "01c0": 2621,
      "7265": 2622,
      "3030": 2623,
      "6c69": 2624,
      "a2d8": 2625,
      "9100": 2626,
      "8f00": 2627,
      "312e": 2628,
      "8e00": 2629,
      "6566": 2630,
      "7461": 2631,
      "1027": 2632,
      "6520": 2633,
      "5bc2": 2634,
      "7863": 2635,
      "5010": 2636,
      "8b00": 2637,
      "0090": 2638,
      "7369": 2639,
      "6661": 2640,
      "0011": 2641,
      "1016": 2642,
      "2d40": 2643,
      "9300": 2644,
      "9400": 2645,
      "48e8": 2646,
      "9700": 2647,
      "8a00": 2648,
      "3330": 2649,
      "9200": 2650,
      "a000": 2651,
      "1800": 2652,
      "8002": 2653,
      "8800": 2654,
      "101c": 2655,
      "1400": 2656,
      "0046": 2657,
      "00e2": 2658,
      "6e64": 2659,
      "3235": 2660,
      "9900": 2661,
      "2f31": 2662,
      "7990": 2663,
      "6561": 2664,
      "04d8": 2665,
      "6d00": 2666,
      "c015": 2667,
      "10ae": 2668,
      "8700": 2669,
      "1100": 2670,
      "a300": 2671,
      "2061": 2672,
      "000a": 2673,
      "7980": 2674,
      "3200": 2675,
      "9d00": 2676,
      "7469": 2677,
      "9500": 2678,
      "9600": 2679,
      "3900": 2680,
      "6d61": 2681,
      "616c": 2682,
      "9800": 2683,
      "04ad": 2684,
      "0075": 2685,
      "026c": 2686,
      "050a": 2687,
      "0102": 2688,
      "0e00": 2689,
      "0073": 2690,
      "0074": 2691,
      "0051": 2692,
      "3037": 2693,
      "0030": 2694,
      "9c00": 2695,
      "756e": 2696,
      "d8ef": 2697,
      "9b00": 2698,
      "a200": 2699,
      "6469": 2700,
      "fd26": 2701,
      "3a32": 2702,
      "6420": 2703,
      "726e": 2704,
      "c900": 2705,
      "0079": 2706,
      "3133": 2707,
      "63fd": 2708,
      "1aa1": 2709,
      "c27b": 2710,
      "746f": 2711,
      "1021": 2712,
      "8600": 2713,
      "9e00": 2714,
      "1090": 2715,
      "a100": 2716,
      "adc2": 2717,
      "10a4": 2718,
      "03c6": 2719,
      "3261": 2720,
      "af00": 2721,
      "3b00": 2722,
      "108c": 2723,
      "3020": 2724,
      "2675": 2725,
      "0801": 2726,
      "7261": 2727,
      "9f00": 2728,
      "3034": 2729,
      "108d": 2730,
      "906f": 2731,
      "0267": 2732,
      "181c": 2733,
      "370b": 2734,
      "007b": 2735,
      "0040": 2736,
      "43d0": 2737,
      "9002": 2738,
      "7220": 2739,
      "75be": 2740,
      "9a00": 2741,
      "313a": 2742,
      "caf0": 2743,
      "0018": 2744,
      "0575": 2745,
      "7264": 2746,
      "d0be": 2747,
      "3730": 2748,
      "1f43": 2749,
      "ae1f": 2750,
      "0a40": 2751,
      "0053": 2752,
      "5420": 2753,
      "007a": 2754,
      "0052": 2755,
      "108b": 2756,
      "300d": 2757,
      "0a3c": 2758,
      "6564": 2759,
      "0045": 2760,
      "7680": 2761,
      "1816": 2762,
      "0071": 2763,
      "676c": 2764,
      "6574": 2765,
      "2700": 2766,
      "3131": 2767,
      "007e": 2768,
      "00fd": 2769,
      "6563": 2770,
      "108e": 2771,
      "7a00": 2772,
      "9803": 2773,
      "797f": 2774,
      "003c": 2775,
      "1821": 2776,
      "352e": 2777,
      "0057": 2778,
      "3137": 2779,
      "000b": 2780,
      "1092": 2781,
      "0308": 2782,
      "fe00": 2783,
      "0216": 2784,
      "1093": 2785,
      "10a3": 2786,
      "3a66": 2787,
      "0355": 2788,
      "6e61": 2789,
      "00ff": 2790,
      "6374": 2791,
      "6d6d": 2792,
      "0931": 2793,
      "6976": 2794,
      "6f67": 2795,
      "2d30": 2796,
      "3800": 2797,
      "108f": 2798,
      "007c": 2799,
      "cb98": 2800,
      "8500": 2801,
      "6965": 2802,
      "e600": 2803,
      "6172": 2804,
      "0700": 2805,
      "436f": 2806,
      "1094": 2807,
      "1091": 2808,
      "2b00": 2809,
      "0072": 2810,
      "2a00": 2811,
      "7a78": 2812,
      "4d00": 2813,
      "6f73": 2814,
      "372d": 2815,
      "5018": 2816,
      "2c21": 2817,
      "726f": 2818,
      "2e30": 2819,
      "49e8": 2820,
      "6533": 2821,
      "0056": 2822,
      "653a": 2823,
      "7a56": 2824,
      "2d77": 2825,
      "caf3": 2826,
      "6874": 2827,
      "7065": 2828,
      "1088": 2829,
      "3239": 2830,
      "5421": 2831,
      "3000": 2832,
      "3c00": 2833,
      "80c9": 2834,
      "108a": 2835,
      "706c": 2836,
      "8029": 2837,
      "b000": 2838,
      "7879": 2839,
      "4000": 2840,
      "8400": 2841,
      "2d32": 2842,
      "6368": 2843,
      "9012": 2844,
      "6672": 2845,
      "0863": 2846,
      "006e": 2847,
      "6665": 2848,
      "1216": 2849,
      "1095": 2850,
      "4800": 2851,
      "862a": 2852,
      "b200": 2853,
      "0a09": 2854,
      "6573": 2855,
      "0301": 2856,
      "c800": 2857,
      "1700": 2858,
      "7997": 2859,
      "1087": 2860,
      "3139": 2861,
      "7986": 2862,
      "3135": 2863,
      "6e3a": 2864,
      "7669": 2865,
      "362d": 2866,
      "c031": 2867,
      "c011": 2868,
      "1096": 2869,
      "002a": 2870,
      "0013": 2871,
      "6e7e": 2872,
      "7992": 2873,
      "e895": 2874,
      "6261": 2875,
      "7994": 2876,
      "7420": 2877,
      "1089": 2878,
      "7983": 2879,
      "676f": 2880,
      "10a2": 2881,
      "2300": 2882,
      "6973": 2883,
      "0270": 2884,
      "b100": 2885,
      "7982": 2886,
      "6162": 2887,
      "6865": 2888,
      "6565": 2889,
      "6765": 2890,
      "2022": 2891,
      "fd01": 2892,
      "0363": 2893,
      "0a0d": 2894,
      "637a": 2895,
      "0b00": 2896,
      "1086": 2897,
      "4be8": 2898,
      "1098": 2899,
      "6f66": 2900,
      "005c": 2901,
      "6c00": 2902,
      "109d": 2903,
      "4ae8": 2904,
      "3700": 2905,
      "9890": 2906,
      "00c0": 2907,
      "4a7a": 2908,
      "0203": 2909,
      "0016": 2910,
      "10a0": 2911,
      "caf1": 2912,
      "2d31": 2913,
      "798c": 2914,
      "5616": 2915,
      "7370": 2916,
      "0a43": 2917,
      "4ce8": 2918,
      "1097": 2919,
      "10a1": 2920,
      "7e1e": 2921,
      "109e": 2922,
      "6700": 2923,
      "1032": 2924,
      "0d01": 2925,
      "9790": 2926,
      "0031": 2927,
      "c000": 2928,
      "0029": 2929,
      "0202": 2930,
      "0266": 2931,
      "6461": 2932,
      "0044": 2933,
      "1099": 2934,
      "4de8": 2935,
      "4f52": 2936,
      "6d79": 2937,
      "1827": 2938,
      "7267": 2939,
      "7800": 2940,
      "0035": 2941,
      "2045": 2942,
      "109a": 2943,
      "0364": 2944,
      "7266": 2945,
      "7988": 2946,
      "002e": 2947,
      "16be": 2948,
      "5365": 2949,
      "ef1f": 2950,
      "7377": 2951,
      "8180": 2952,
      "6d6f": 2953,
      "109c": 2954,
      "502f": 2955,
      "3138": 2956,
      "3400": 2957,
      "6e48": 2958,
      "3531": 2959,
      "3500": 2960,
      "5504": 2961,
      "2abe": 2962,
      "1f86": 2963,
      "4854": 2964,
      "223a": 2965,
      "2031": 2966,
      "3336": 2967,
      "3339": 2968,
      "732d": 2969,
      "0028": 2970,
      "109b": 2971,
      "3134": 2972,
      "109f": 2973,
      "0c08": 2974,
      "7277": 2975,
      "4ee8": 2976,
      "6e6f": 2977,
      "7363": 2978,
      "b300": 2979,
      "003e": 2980,
      "7874": 2981,
      "4700": 2982,
      "0900": 2983,
      "7366": 2984,
      "5700": 2985,
      "5b00": 2986,
      "0041": 2987,
      "007d": 2988,
      "574f": 2989,
      "0012": 2990,
      "2200": 2991,
      "3530": 2992,
      "b400": 2993,
      "3337": 2994,
      "044a": 2995,
      "0369": 2996,
      "182d": 2997,
      "6e6e": 2998,
      "6f75": 2999,
      "4f30": 3000,
      "7985": 3001,
      "6179": 3002,
      "776f": 3003,
      "5970": 3004,
      "4550": 3005,
      "9990": 3006,
      "5264": 3007,
      "3236": 3008,
      "3535": 3009,
      "0302": 3010,
      "6503": 3011,
      "006b": 3012,
      "6663": 3013,
      "204d": 3014,
      "798a": 3015,
      "3420": 3016,
      "4400": 3017,
      "6546": 3018,
      "797a": 3019,
      "0271": 3020,
      "302e": 3021,
      "5472": 3022,
      "3520": 3023,
      "4500": 3024,
      "caf2": 3025,
      "3c57": 3026,
      "333a": 3027,
      "5244": 3028,
      "0277": 3029,
      "3838": 3030,
      "6e20": 3031,
      "5f63": 3032,
      "002d": 3033,
      "0401": 3034,
      "0a37": 3035,
      "9690": 3036,
      "3537": 3037,
      "10af": 3038,
      "6f64": 3039,
      "8300": 3040,
      "000f": 3041,
      "798d": 3042,
      "2050": 3043,
      "6f79": 3044,
      "6576": 3045,
      "6875": 3046,
      "9a90": 3047,
      "0276": 3048,
      "786f": 3049,
      "656d": 3050,
      "2054": 3051,
      "006f": 3052,
      "756c": 3053,
      "1900": 3054,
      "6600": 3055,
      "6478": 3056,
      "7995": 3057,
      "7c7c": 3058,
      "3600": 3059,
      "6369": 3060,
      "e898": 3061,
      "2100": 3062,
      "7993": 3063,
      "2e63": 3064,
      "e899": 3065,
      "5a0a": 3066,
      "2043": 3067,
      "6800": 3068,
      "636c": 3069,
      "7989": 3070,
      "636e": 3071,
      "6974": 3072,
      "1525": 3073,
      "0025": 3074,
      "2500": 3075,
      "7996": 3076,
      "1603": 3077,
      "5450": 3078,
      "b500": 3079,
      "e897": 3080,
      "7074": 3081,
      "5345": 3082,
      "3234": 3083,
      "798f": 3084,
      "0272": 3085,
      "6375": 3086,
      "6c6f": 3087,
      "6930": 3088,
      "051a": 3089,
      "4900": 3090,
      "7080": 3091,
      "4d39": 3092,
      "10ff": 3093,
      "2b51": 3094,
      "362e": 3095,
      "5403": 3096,
      "4875": 3097,
      "7552": 3098,
      "6d70": 3099,
      "80e4": 3100,
      "0055": 3101,
      "7920": 3102,
      "702d": 3103,
      "5454": 3104,
      "5000": 3105,
      "e896": 3106,
      "000d": 3107,
      "514d": 3108,
      "4b00": 3109,
      "3a31": 3110,
      "001a": 3111,
      "7274": 3112,
      "7773": 3113,
      "7987": 3114,
      "30d4": 3115,
      "6170": 3116,
      "9b90": 3117,
      "3331": 3118,
      "3930": 3119,
      "3620": 3120,
      "0ac0": 3121,
      "2c31": 3122,
      "e89a": 3123,
      "7778": 3124,
      "6872": 3125,
      "4988": 3126,
      "3300": 3127,
      "0802": 3128,
      "6e5f": 3129,
      "4461": 3130,
      "798e": 3131,
      "0559": 3132,
      "0378": 3133,
      "4963": 3134,
      "2035": 3135,
      "4300": 3136,
      "1932": 3137,
      "4652": 3138,
      "3431": 3139,
      "2064": 3140,
      "742d": 3141,
      "6e70": 3142,
      "6505": 3143,
      "6500": 3144,
      "0066": 3145,
      "662b": 3146,
      "310d": 3147,
      "7880": 3148,
      "007f": 3149,
      "646c": 3150,
      "0268": 3151,
      "3033": 3152,
      "026a": 3153,
      "3d22": 3154,
      "d405": 3155,
      "01d6": 3156,
      "1085": 3157,
      "2202": 3158,
      "7981": 3159,
      "0408": 3160,
      "4142": 3161,
      "686f": 3162,
      "9590": 3163,
      "0601": 3164,
      "e2e9": 3165,
      "0a53": 3166,
      "70e6": 3167,
      "7474": 3168,
      "3935": 3169,
      "6120": 3170,
      "7472": 3171,
      "798b": 3172,
      "7de2": 3173,
      "6577": 3174,
      "102d": 3175,
      "3334": 3176,
      "4a7d": 3177,
      "77e9": 3178,
      "b600": 3179,
      "0269": 3180,
      "24f4": 3181,
      "3434": 3182,
      "654c": 3183,
      "7761": 3184,
      "7649": 3185,
      "3c2f": 3186,
      "6361": 3187,
      "7002": 3188,
      "15c0": 3189,
      "4745": 3190,
      "4fe8": 3191,
      "796d": 3192,
      "4420": 3193,
      "6100": 3194,
      "7984": 3195,
      "ccbe": 3196,
      "6479": 3197,
      "10b0": 3198,
      "7991": 3199,
      "2c00": 3200,
      "7468": 3201,
      "3735": 3202,
      "47e8": 3203,
      "0043": 3204,
      "6543": 3205,
      "0279": 3206,
      "0252": 3207,
      "706f": 3208,
      "0706": 3209,
      "6176": 3210,
      "0034": 3211,
      "4372": 3212,
      "0b66": 3213,
      "2d61": 3214,
      "4200": 3215,
      "5a0b": 3216,
      "6e69": 3217,
      "50e8": 3218,
      "0273": 3219,
      "036f": 3220,
      "7162": 3221,
      "7473": 3222,
      "0081": 3223,
      "4076": 3224,
      "cbcc": 3225,
      "0060": 3226,
      "2070": 3227,
      "2047": 3228,
      "5553": 3229,
      "3733": 3230,
      "6273": 3231,
      "7070": 3232,
      "d851": 3233,
      "206e": 3234,
      "540d": 3235,
      "6b65": 3236,
      "6d6c": 3237,
      "3638": 3238,
      "003f": 3239,
      "0275": 3240,
      "0609": 3241,
      "1127": 3242,
      "9dad": 3243,
      "740d": 3244,
      "b2cb": 3245,
      "596e": 3246,
      "3432": 3247,
      "6f74": 3248,
      "712c": 3249,
      "dab2": 3250,
      "ff01": 3251,
      "6570": 3252,
      "7305": 3253,
      "003d": 3254,
      "0249": 3255,
      "1616": 3256,
      "e89b": 3257,
      "5014": 3258,
      "3b20": 3259,
      "ad71": 3260,
      "6464": 3261,
      "4d53": 3262,
      "0403": 3263,
      "0b6d": 3264,
      "0b90": 3265,
      "6d20": 3266,
      "660b": 3267,
      "0667": 3268,
      "10b1": 3269,
      "795f": 3270,
      "0278": 3271,
      "6562": 3272,
      "a123": 3273,
      "6167": 3274,
      "2cbe": 3275,
      "9c90": 3276,
      "7500": 3277,
      "3332": 3278,
      "1200": 3279,
      "6e56": 3280,
      "5600": 3281,
      "673a": 3282,
      "0990": 3283,
      "b800": 3284,
      "009e": 3285,
      "3e0a": 3286,
      "3333": 3287,
      "6e00": 3288,
      "0015": 3289,
      "2028": 3290,
      "7331": 3291,
      "0042": 3292,
      "5354": 3293,
      "01be": 3294,
      "5f64": 3295,
      "5a80": 3296,
      "80c0": 3297,
      "2f00": 3298,
      "0274": 3299,
      "0304": 3300,
      "1aa5": 3301,
      "2d53": 3302,
      "5061": 3303,
      "2d73": 3304,
      "0085": 3305,
      "4a0b": 3306,
      "003b": 3307,
      "0d00": 3308,
      "650d": 3309,
      "652d": 3310,
      "024a": 3311,
      "006d": 3312,
      "733d": 3313,
      "b700": 3314,
      "6200": 3315,
      "4a12": 3316,
      "5200": 3317,
      "c690": 3318,
      "10b2": 3319,
      "7570": 3320,
      "d6e9": 3321,
      "6a00": 3322,
      "3938": 3323,
      "6e79": 3324,
      "0a63": 3325,
      "1300": 3326,
      "f730": 3327,
      "2e00": 3328,
      "e52b": 3329,
      "00a0": 3330,
      "220a": 3331,
      "81c8": 3332,
      "3536": 3333,
      "0083": 3334,
      "e9b0": 3335,
      "3238": 3336,
      "4444": 3337,
      "6952": 3338,
      "7470": 3339,
      "7379": 3340,
      "0058": 3341,
      "e976": 3342,
      "3939": 3343,
      "5248": 3344,
      "006c": 3345,
      "7580": 3346,
      "06c0": 3347,
      "00fe": 3348,
      "9490": 3349,
      "0036": 3350,
      "7000": 3351,
      "4b62": 3352,
      "0406": 3353,
      "c200": 3354,
      "51e8": 3355,
      "7777": 3356,
      "6873": 3357,
      "6473": 3358,
      "3630": 3359,
      "5a00": 3360,
      "0069": 3361,
      "ac02": 3362,
      "2600": 3363,
      "626c": 3364,
      "6269": 3365,
      "2020": 3366,
      "0082": 3367,
      "008a": 3368,
      "80c8": 3369,
      "6b00": 3370,
      "4c00": 3371,
      "6165": 3372,
      "672e": 3373,
      "4e00": 3374,
      "0130": 3375,
      "3430": 3376,
      "0037": 3377,
      "0061": 3378,
      "0222": 3379,
      "7730": 3380,
      "7269": 3381,
      "4443": 3382,
      "766f": 3383,
      "1d00": 3384,
      "0084": 3385,
      "58f8": 3386,
      "3639": 3387,
      "2073": 3388,
      "6f00": 3389,
      "2a86": 3390,
      "5400": 3391,
      "5372": 3392,
      "2074": 3393,
      "7100": 3394,
      "49e9": 3395,
      "0059": 3396,
      "3237": 3397,
      "4546": 3398,
      "4886": 3399,
      "4040": 3400,
      "fdec": 3401,
      "342e": 3402,
      "4d54": 3403,
      "18ff": 3404,
      "0d06": 3405,
      "c6a2": 3406,
      "feff": 3407,
      "416c": 3408,
      "2e0d": 3409,
      "cb00": 3410,
      "1e00": 3411,
      "10b3": 3412,
      "c590": 3413,
      "703a": 3414,
      "9367": 3415,
      "5300": 3416,
      "666e": 3417,
      "2680": 3418,
      "86f7": 3419,
      "4a00": 3420,
      "7cb2": 3421,
      "6462": 3422,
      "3246": 3423,
      "00c5": 3424,
      "1600": 3425,
      "3288": 3426,
      "6239": 3427,
      "6300": 3428,
      "3435": 3429,
      "3634": 3430,
      "0961": 3431,
      "fdf5": 3432,
      "3335": 3433,
      "3038": 3434,
      "4759": 3435,
      "484a": 3436,
      "c890": 3437,
      "7372": 3438,
      "e89c": 3439,
      "5080": 3440,
      "092a": 3441,
      "7900": 3442,
      "796f": 3443,
      "6b62": 3444,
      "424d": 3445,
      "3890": 3446,
      "4442": 3447,
      "e90b": 3448,
      "5a0c": 3449,
      "6d69": 3450,
      "4664": 3451,
      "3437": 3452,
      "6769": 3453,
      "3633": 3454,
      "1e80": 3455,
      "7632": 3456,
      "7b00": 3457,
      "0097": 3458,
      "7600": 3459,
      "f70d": 3460,
      "ca90": 3461,
      "6e7d": 3462,
      "c6a3": 3463,
      "0eb7": 3464,
      "a950": 3465,
      "3732": 3466,
      "3837": 3467,
      "8648": 3468,
      "9d90": 3469,
      "6f03": 3470,
      "3a00": 3471,
      "c4ff": 3472,
      "96a2": 3473,
      "cac7": 3474,
      "065d": 3475,
      "baca": 3476,
      "3533": 3477,
      "00e8": 3478,
      "b7ba": 3479,
      "0180": 3480,
      "001f": 3481,
      "be96": 3482,
      "746d": 3483,
      "2a2a": 3484,
      "002f": 3485,
      "c500": 3486,
      "6f77": 3487,
      "652e": 3488,
      "c100": 3489,
      "6f70": 3490,
      "5121": 3491,
      "0026": 3492,
      "5258": 3493,
      "097a": 3494,
      "f288": 3495,
      "8201": 3496,
      "1a00": 3497,
      "5647": 3498,
      "1302": 3499,
      "0223": 3500,
      "e894": 3501,
      "e93c": 3502,
      "4a47": 3503,
      "f0fc": 3504,
      "7480": 3505,
      "0038": 3506,
      "206c": 3507,
      "205b": 3508,
      "dc99": 3509,
      "7700": 3510,
      "fded": 3511,
      "6343": 3512,
      "0f00": 3513,
      "dc00": 3514,
      "4465": 3515,
      "6971": 3516,
      "4144": 3517,
      "fdf4": 3518,
      "1f00": 3519,
      "736f": 3520,
      "3653": 3521,
      "7a61": 3522,
      "6d58": 3523,
      "5220": 3524,
      "06c5": 3525,
      "4d6f": 3526,
      "7970": 3527,
      "6c72": 3528,
      "4554": 3529,
      "009d": 3530,
      "fffe": 3531,
      "5500": 3532,
      "3d00": 3533,
      "7569": 3534,
      "5900": 3535,
      "6305": 3536,
      "0033": 3537,
      "2b06": 3538,
      "7300": 3539,
      "5550": 3540,
      "512b": 3541,
      "4b49": 3542,
      "204f": 3543,
      "027a": 3544,
      "9e90": 3545,
      "4665": 3546,
      "327c": 3547,
      "2080": 3548,
      "70ac": 3549,
      "723a": 3550,
      "fdf3": 3551,
      "5733": 3552,
      "f0a4": 3553,
      "1140": 3554,
      "bc00": 3555,
      "4761": 3556,
      "6d57": 3557,
      "0340": 3558,
      "b900": 3559,
      "6900": 3560,
      "7d1e": 3561,
      "200a": 3562,
      "0505": 3563,
      "b2f0": 3564,
      "802a": 3565,
      "fcfc": 3566,
      "00cd": 3567,
      "587a": 3568,
      "0067": 3569,
      "0251": 3570,
      "4871": 3571,
      "00ac": 3572,
      "5765": 3573,
      "782d": 3574,
      "7334": 3575,
      "ea00": 3576,
      "3934": 3577,
      "f56d": 3578,
      "4c46": 3579,
      "d14a": 3580,
      "3836": 3581,
      "bd00": 3582,
      "6662": 3583,
      "524a": 3584,
      "5859": 3585,
      "3831": 3586,
      "00dc": 3587,
      "667a": 3588,
      "5a10": 3589,
      "5800": 3590,
      "0065": 3591,
      "0257": 3592,
      "4058": 3593,
      "f8d1": 3594,
      "fdf2": 3595,
      "a4d8": 3596,
      "255b": 3597,
      "4845": 3598,
      "474d": 3599,
      "7809": 3600,
      "fdf1": 3601,
      "c990": 3602,
      "00c3": 3603,
      "3503": 3604,
      "4f4b": 3605,
      "00d0": 3606,
      "6134": 3607,
      "e0f3": 3608,
      "2d00": 3609,
      "4548": 3610,
      "511c": 3611,
      "a48e": 3612,
      "d7fd": 3613,
      "dd00": 3614,
      "7288": 3615,
      "5252": 3616,
      "644b": 3617,
      "0a24": 3618,
      "00e6": 3619,
      "3338": 3620,
      "3663": 3621,
      "4a02": 3622,
      "3737": 3623,
      "6000": 3624,
      "10b4": 3625,
      "666f": 3626,
      "7a50": 3627,
      "0089": 3628,
      "3036": 3629,
      "7a80": 3630,
      "c290": 3631,
      "4f00": 3632,
      "7f00": 3633,
      "43af": 3634,
      "80c6": 3635,
      "008d": 3636,
      "ca00": 3637,
      "fdee": 3638,
      "5065": 3639,
      "496e": 3640,
      "006a": 3641,
      "0a16": 3642,
      "0250": 3643,
      "b288": 3644,
      "7b80": 3645,
      "3433": 3646,
      "80c5": 3647,
      "7200": 3648,
      "2048": 3649,
      "7422": 3650,
      "5c93": 3651,
      "2066": 3652,
      "fdeb": 3653,
      "7333": 3654,
      "5352": 3655,
      "7280": 3656,
      "9501": 3657,
      "3436": 3658,
      "057a": 3659,
      "46e8": 3660,
      "0068": 3661,
      "fdef": 3662,
      "4643": 3663,
      "6e63": 3664,
      "e900": 3665,
      "fdf0": 3666,
      "33d7": 3667,
      "3920": 3668,
      "d858": 3669,
      "00be": 3670,
      "5a09": 3671,
      "0064": 3672,
      "3e00": 3673,
      "c363": 3674,
      "4244": 3675,
      "4d20": 3676,
      "a105": 3677,
      "c490": 3678,
      "532d": 3679,
      "00f4": 3680,
      "9910": 3681,
      "6363": 3682,
      "00cc": 3683,
      "7164": 3684,
      "ba00": 3685,
      "0137": 3686,
      "0348": 3687,
      "6372": 3688,
      "6d2f": 3689,
      "497d": 3690,
      "f3ad": 3691,
      "03fe": 3692,
      "0c63": 3693,
      "2a4b": 3694,
      "cb90": 3695,
      "4600": 3696,
      "d000": 3697,
      "adb9": 3698,
      "7572": 3699,
      "d7eb": 3700,
      "6d68": 3701,
      "0305": 3702,
      "cd27": 3703,
      "7447": 3704,
      "b940": 3705,
      "00f6": 3706,
      "4e69": 3707,
      "c69a": 3708,
      "58cd": 3709,
      "7166": 3710,
      "009a": 3711,
      "e200": 3712,
      "7f7e": 3713,
      "fcbf": 3714,
      "0099": 3715,
      "3739": 3716,
      "10dc": 3717,
      "d7f8": 3718,
      "67a1": 3719,
      "faf0": 3720,
      "005e": 3721,
      "7a48": 3722,
      "0146": 3723,
      "9390": 3724,
      "743a": 3725,
      "2158": 3726,
      "7332": 3727,
      "8ee5": 3728,
      "5936": 3729,
      "6c79": 3730,
      "c6a0": 3731,
      "4e44": 3732,
      "6d31": 3733,
      "7dd6": 3734,
      "6d80": 3735,
      "01ff": 3736,
      "d4c1": 3737,
      "872a": 3738,
      "012b": 3739,
      "6578": 3740,
      "2065": 3741,
      "c6a7": 3742,
      "3766": 3743,
      "5100": 3744,
      "0086": 3745,
      "f56f": 3746,
      "b730": 3747,
      "f300": 3748,
      "c699": 3749,
      "d700": 3750,
      "4541": 3751,
      "7380": 3752,
      "6e80": 3753,
      "43a1": 3754,
      "c6aa": 3755,
      "6241": 3756,
      "706e": 3757,
      "6175": 3758,
      "3082": 3759,
      "223e": 3760,
      "d7ea": 3761,
      "c69b": 3762,
      "d500": 3763,
      "e89d": 3764,
      "d7ed": 3765,
      "f570": 3766,
      "4644": 3767,
      "af15": 3768,
      "7272": 3769,
      "494e": 3770,
      "5a11": 3771,
      "c69f": 3772,
      "f900": 3773,
      "f571": 3774,
      "f573": 3775,
      "c69d": 3776,
      "2393": 3777,
      "0a05": 3778,
      "c69e": 3779,
      "6e2d": 3780,
      "32c0": 3781,
      "77be": 3782,
      "00e7": 3783,
      "4645": 3784,
      "06c1": 3785,
      "d649": 3786,
      "3833": 3787,
      "4578": 3788,
      "6c61": 3789,
      "f572": 3790,
      "008e": 3791,
      "5346": 3792,
      "998e": 3793,
      "0870": 3794,
      "d7fb": 3795,
      "d743": 3796,
      "650c": 3797,
      "d7f5": 3798,
      "7998": 3799,
      "2d76": 3800,
      "e000": 3801,
      "d7ef": 3802,
      "10b5": 3803,
      "6265": 3804,
      "c400": 3805,
      "c6a1": 3806,
      "c0c4": 3807,
      "b47c": 3808,
      "1132": 3809,
      "513f": 3810,
      "d7fc": 3811,
      "7475": 3812,
      "00e9": 3813,
      "f600": 3814,
      "27c3": 3815,
      "024e": 3816,
      "f574": 3817,
      "2beb": 3818,
      "c050": 3819,
      "6262": 3820,
      "726b": 3821,
      "104f": 3822,
      "f56e": 3823,
      "c1b4": 3824,
      "06c6": 3825,
      "0088": 3826,
      "b8b4": 3827,
      "2a70": 3828,
      "8e99": 3829,
      "0107": 3830,
      "6c74": 3831,
      "6f36": 3832,
      "0a23": 3833,
      "c69c": 3834,
      "372e": 3835,
      "00f2": 3836,
      "3a57": 3837,
      "2055": 3838,
      "00e0": 3839,
      "8200": 3840,
      "382e": 3841,
      "6d51": 3842,
      "eb87": 3843,
      "18e3": 3844,
      "d7f2": 3845,
      "4a3a": 3846,
      "211b": 3847,
      "3637": 3848,
      "0039": 3849,
      "6370": 3850,
      "c6a4": 3851,
      "7ed4": 3852,
      "d7ec": 3853,
      "d7f1": 3854,
      "c700": 3855,
      "d7f0": 3856,
      "5d3b": 3857,
      "8100": 3858,
      "ef00": 3859,
      "634e": 3860,
      "c6a5": 3861,
      "6470": 3862,
      "06c3": 3863,
      "59ec": 3864,
      "6970": 3865,
      "cc90": 3866,
      "d7f9": 3867,
      "bb00": 3868,
      "3468": 3869,
      "1064": 3870,
      "1849": 3871,
      "a018": 3872,
      "204a": 3873,
      "00bb": 3874,
      "d7f3": 3875,
      "7fff": 3876,
      "0880": 3877,
      "002b": 3878,
      "646f": 3879,
      "3832": 3880,
      "11c0": 3881,
      "5958": 3882,
      "0470": 3883,
      "6d64": 3884,
      "3933": 3885,
      "027e": 3886,
      "127f": 3887,
      "06c2": 3888,
      "d7fa": 3889,
      "001b": 3890,
      "f000": 3891,
      "7d00": 3892,
      "c6a6": 3893,
      "0087": 3894,
      "6303": 3895,
      "6d74": 3896,
      "e3e0": 3897,
      "4654": 3898,
      "3539": 3899,
      "3a75": 3900,
      "0280": 3901,
      "3532": 3902,
      "0480": 3903,
      "2034": 3904,
      "060c": 3905,
      "5f00": 3906,
      "1b00": 3907,
      "01a7": 3908,
      "beb8": 3909,
      "0255": 3910,
      "0a4f": 3911,
      "00fb": 3912,
      "d7f7": 3913,
      "06be": 3914,
      "67f0": 3915,
      "d7ee": 3916,
      "008c": 3917,
      "4d45": 3918,
      "312c": 3919,
      "d7f4": 3920,
      "746c": 3921,
      "06c4": 3922,
      "ed00": 3923,
      "5a0e": 3924,
      "009f": 3925,
      "5175": 3926,
      "026b": 3927,
      "33c0": 3928,
      "8080": 3929,
      "6275": 3930,
      "4b70": 3931,
      "0a48": 3932,
      "0098": 3933,
      "cd90": 3934,
      "696d": 3935,
      "7973": 3936,
      "772d": 3937,
      "5a12": 3938,
      "4802": 3939,
      "742f": 3940,
      "cc00": 3941,
      "00b0": 3942,
      "4479": 3943,
      "52e8": 3944,
      "3e0d": 3945,
      "3e38": 3946,
      "005a": 3947,
      "6169": 3948,
      "7075": 3949,
      "7c80": 3950,
      "6102": 3951,
      "4646": 3952,
      "06bf": 3953,
      "dc90": 3954,
      "fc00": 3955,
      "6e78": 3956,
      "bf4a": 3957,
      "80c4": 3958,
      "00d5": 3959,
      "59f8": 3960,
      "6135": 3961,
      "6f38": 3962,
      "3f00": 3963,
      "4302": 3964,
      "c300": 3965,
      "640d": 3966,
      "5415": 3967,
      "7534": 3968,
      "c390": 3969,
      "0461": 3970,
      "486f": 3971,
      "012c": 3972,
      "0457": 3973,
      "4c45": 3974,
      "e800": 3975,
      "0e73": 3976,
      "d7f6": 3977,
      "f3c0": 3978,
      "00c6": 3979,
      "4378": 3980,
      "2902": 3981,
      "3951": 3982,
      "c112": 3983,
      "00c8": 3984,
      "0a01": 3985,
      "4858": 3986,
      "6d62": 3987,
      "b4af": 3988,
      "00b4": 3989,
      "00de": 3990,
      "5148": 3991,
      "3039": 3992,
      "3564": 3993,
      "0095": 3994,
      "7869": 3995,
      "7409": 3996,
      "cd00": 3997,
      "7069": 3998,
      "7657": 3999,
      "7c00": 4000,
      "5751": 4001,
      "2a02": 4002,
      "5176": 4003,
      "c6a8": 4004,
      "3932": 4005,
      "730d": 4006,
      "5a0f": 4007,
      "084d": 4008,
      "6131": 4009,
      "300c": 4010,
      "386f": 4011,
      "6f6b": 4012,
      "00f0": 4013,
      "2e35": 4014,
      "2f57": 4015,
      "0190": 4016,
      "6d55": 4017,
      "290d": 4018,
      "4e38": 4019,
      "d74a": 4020,
      "afa0": 4021,
      "c6a9": 4022,
      "e400": 4023,
      "6d6e": 4024,
      "c6ab": 4025,
      "00a8": 4026,
      "6d78": 4027,
      "6132": 4028,
      "10b7": 4029,
      "f380": 4030,
      "300a": 4031,
      "5769": 4032,
      "6964": 4033,
      "6c44": 4034,
      "4e46": 4035,
      "008f": 4036,
      "302c": 4037,
      "3937": 4038,
      "32b2": 4039,
      "7180": 4040,
      "0094": 4041,
      "303a": 4042,
      "2044": 4043,
      "5b02": 4044,
      "0a08": 4045,
      "c600": 4046,
      "0367": 4047,
      "0445": 4048,
      "5302": 4049,
      "6d2e": 4050,
      "793a": 4051,
      "00bd": 4052,
      "c71d": 4053,
      "4f63": 4054,
      "3a73": 4055,
      "fd00": 4056,
      "714e": 4057,
      "7d80": 4058,
      "5331": 4059,
      "2c02": 4060,
      "7361": 4061,
      "6364": 4062,
      "e7a9": 4063,
      "564e": 4064,
      "f56c": 4065,
      "1002": 4066,
      "f575": 4067,
      "3035": 4068,
      "3736": 4069,
      "9f90": 4070,
      "5d00": 4071,
      "00c7": 4072,
      "5869": 4073,
      "7e00": 4074,
      "31c0": 4075,
      "72c0": 4076,
      "00c4": 4077,
      "3a64": 4078,
      "0f3d": 4079,
      "00a5": 4080,
      "5043": 4081,
      "c111": 4082,
      "d400": 4083,
      "6431": 4084,
      "34c0": 4085,
      "d300": 4086,
      "da00": 4087,
      "f400": 4088,
      "00e1": 4089,
      "fa00": 4090,
      "6b80": 4091,
      "5155": 4092,
      "392e": 4093,
      "3048": 4094,
      "4018": 4095,
      "4344": 4096,
      "0096": 4097,
      "6e3b": 4098,
      "00c2": 4099,
      "80cc": 4100,
      "e893": 4101,
      "7063": 4102,
      "4445": 4103,
      "0106": 4104,
      "5026": 4105,
      "ec00": 4106,
      "1116": 4107,
      "d100": 4108,
      "00ca": 4109,
      "00dd": 4110,
      "00ee": 4111,
      "5a0d": 4112,
      "8001": 4113,
      "206f": 4114,
      "fb00": 4115,
      "443e": 4116,
      "696c": 4117,
      "0f40": 4118,
      "e700": 4119,
      "1c09": 4120,
      "6d59": 4121,
      "00c1": 4122,
      "4945": 4123,
      "7a62": 4124,
      "456e": 4125,
      "00fc": 4126,
      "3e3c": 4127,
      "6d49": 4128,
      "009c": 4129,
      "782f": 4130,
      "2075": 4131,
      "5b31": 4132,
      "5053": 4133,
      "d800": 4134,
      "3830": 4135,
      "7835": 4136,
      "6c73": 4137,
      "5c00": 4138,
      "7562": 4139,
      "4e33": 4140,
      "2302": 4141,
      "5a08": 4142,
      "c190": 4143,
      "00bc": 4144,
      "f200": 4145,
      "3010": 4146,
      "4859": 4147,
      "fffc": 4148,
      "d600": 4149,
      "e500": 4150,
      "be00": 4151,
      "00e5": 4152,
      "322e": 4153,
      "626f": 4154,
      "0906": 4155,
      "6d0c": 4156,
      "005d": 4157,
      "7336": 4158,
      "02f6": 4159,
      "6f6c": 4160,
      "0502": 4161,
      "216b": 4162,
      "93f7": 4163,
      "43e0": 4164,
      "796e": 4165,
      "4974": 4166,
      "6243": 4167,
      "00c9": 4168,
      "f500": 4169,
      "3438": 4170,
      "2e33": 4171,
      "6876": 4172,
      "206b": 4173,
      "0117": 4174,
      "00ea": 4175,
      "1006": 4176,
      "6d52": 4177,
      "6d47": 4178,
      "00e4": 4179,
      "0f42": 4180,
      "6869": 4181,
      "7025": 4182,
      "0063": 4183,
      "1049": 4184,
      "5125": 4185,
      "5356": 4186,
      "6d7a": 4187,
      "c080": 4188,
      "2f2f": 4189,
      "6c6e": 4190,
      "0f41": 4191,
      "5e00": 4192,
      "1084": 4193,
      "005f": 4194,
      "00b9": 4195,
      "f100": 4196,
      "0909": 4197,
      "4354": 4198,
      "3a2f": 4199,
      "d200": 4200,
      "543a": 4201,
      "fffd": 4202,
      "2d75": 4203,
      "008b": 4204,
      "7e7e": 4205,
      "0177": 4206,
      "dc80": 4207,
      "260a": 4208,
      "240a": 4209,
      "4368": 4210,
      "00ec": 4211,
      "6c6c": 4212,
      "4a75": 4213,
      "3631": 4214,
      "0501": 4215,
      "752b": 4216,
      "80ca": 4217,
      "6f63": 4218,
      "170d": 4219,
      "ce00": 4220,
      "eb97": 4221,
      "2370": 4222,
      "6e50": 4223,
      "7978": 4224,
      "7753": 4225,
      "e300": 4226,
      "6972": 4227,
      "00d6": 4228,
      "c698": 4229,
      "3361": 4230,
      "0062": 4231,
      "6a34": 4232,
      "0f3f": 4233,
      "010d": 4234,
      "a7e7": 4235,
      "6472": 4236,
      "5245": 4237,
      "1266": 4238,
      "2062": 4239,
      "0a44": 4240,
      "0380": 4241,
      "0590": 4242,
      "e100": 4243,
      "0f43": 4244,
      "00d8": 4245,
      "d900": 4246,
      "238a": 4247,
      "6f80": 4248,
      "3009": 4249,
      "db00": 4250,
      "5964": 4251,
      "ae02": 4252,
      "00b8": 4253,
      "6161": 4254,
      "0f3e": 4255,
      "0f47": 4256,
      "00bf": 4257,
      "01e7": 4258,
      "ef24": 4259,
      "6d0b": 4260,
      "732e": 4261,
      "e935": 4262,
      "736d": 4263,
      "8302": 4264,
      "00fa": 4265,
      "0092": 4266,
      "00d4": 4267,
      "204b": 4268,
      "f390": 4269,
      "00f3": 4270,
      "00e3": 4271,
      "1832": 4272,
      "46c0": 4273,
      "212d": 4274,
      "a001": 4275,
      "0f44": 4276,
      "d426": 4277,
      "7430": 4278,
      "4441": 4279,
      "00eb": 4280,
      "1080": 4281,
      "00cb": 4282,
      "5749": 4283,
      "65d0": 4284,
      "6251": 4285,
      "6c75": 4286,
      "ee00": 4287,
      "0c2b": 4288,
      "0384": 4289,
      "e89e": 4290,
      "3202": 4291,
      "4c02": 4292,
      "5b01": 4293,
      "00a9": 4294,
      "bf00": 4295,
      "348e": 4296,
      "10b6": 4297,
      "00d3": 4298,
      "3439": 4299,
      "f080": 4300,
      "0418": 4301,
      "ef22": 4302,
      "6d7c": 4303,
      "0265": 4304,
      "0f46": 4305,
      "6767": 4306,
      "287c": 4307,
      "00b1": 4308,
      "4b50": 4309,
      "59f9": 4310,
      "e8dc": 4311,
      "6537": 4312,
      "016c": 4313,
      "00ba": 4314,
      "6d4f": 4315,
      "00f8": 4316,
      "0404": 4317,
      "c110": 4318,
      "0e10": 4319,
      "00a4": 4320,
      "3362": 4321,
      "4958": 4322,
      "6d33": 4323,
      "0093": 4324,
      "0578": 4325,
      "1cac": 4326,
      "6137": 4327,
      "cf00": 4328,
      "0195": 4329,
      "c580": 4330,
      "3280": 4331,
      "524f": 4332,
      "454c": 4333,
      "4749": 4334,
      "3465": 4335,
      "f700": 4336,
      "3534": 4337,
      "0f45": 4338,
      "2880": 4339,
      "5168": 4340,
      "b202": 4341,
      "0091": 4342,
      "0490": 4343,
      "ef26": 4344,
      "3936": 4345,
      "7878": 4346,
      "bbe0": 4347,
      "0131": 4348,
      "0f63": 4349,
      "6dd6": 4350,
      "e880": 4351,
      "6d73": 4352,
      "7270": 4353,
      "a059": 4354,
      "f800": 4355,
      "00d1": 4356,
      "6279": 4357,
      "dd90": 4358,
      "00b2": 4359,
      "bfa0": 4360,
      "6b48": 4361,
      "5a02": 4362,
      "0980": 4363,
      "2040": 4364,
      "3303": 4365,
      "00d2": 4366,
      "6138": 4367,
      "7e80": 4368,
      "5c49": 4369,
      "7944": 4370,
      "0932": 4371,
      "4b20": 4372,
      "aaff": 4373,
      "00b6": 4374,
      "3104": 4375,
      "00a6": 4376,
      "5868": 4377,
      "6d30": 4378,
      "3370": 4379,
      "6d6a": 4380,
      "024c": 4381,
      "324e": 4382,
      "573a": 4383,
      "7c29": 4384,
      "6270": 4385,
      "054a": 4386,
      "18fa": 4387,
      "00da": 4388,
      "0109": 4389,
      "315a": 4390,
      "00b3": 4391,
      "00a2": 4392,
      "df00": 4393,
      "6250": 4394,
      "00ab": 4395,
      "00ce": 4396,
      "98fe": 4397,
      "4131": 4398,
      "3072": 4399,
      "6d4e": 4400,
      "da02": 4401,
      "55ae": 4402,
      "bb70": 4403,
      "1801": 4404,
      "4e45": 4405,
      "00d9": 4406,
      "00a1": 4407,
      "93f6": 4408,
      "cf63": 4409,
      "4a1b": 4410,
      "8801": 4411,
      "8a20": 4412,
      "00d7": 4413,
      "0241": 4414,
      "00aa": 4415,
      "6522": 4416,
      "7865": 4417,
      "6832": 4418,
      "6408": 4419,
      "6d38": 4420,
      "45e8": 4421,
      "4b02": 4422,
      "ef20": 4423,
      "0512": 4424,
      "3256": 4425,
      "00ad": 4426,
      "6235": 4427,
      "a090": 4428,
      "6d0d": 4429,
      "6630": 4430,
      "80c3": 4431,
      "70e9": 4432,
      "00f7": 4433,
      "e090": 4434,
      "e080": 4435,
      "7031": 4436,
      "506e": 4437,
      "0708": 4438,
      "5b90": 4439,
      "7c35": 4440,
      "7204": 4441,
      "9267": 4442,
      "6d35": 4443,
      "02f7": 4444,
      "00f1": 4445,
      "0701": 4446,
      "726a": 4447,
      "bfff": 4448,
      "5679": 4449,
      "722e": 4450,
      "0366": 4451,
      "d5ae": 4452,
      "00b5": 4453,
      "6d41": 4454,
      "5971": 4455,
      "7965": 4456,
      "8e75": 4457,
      "4649": 4458,
      "00ed": 4459,
      "00f5": 4460,
      "00a3": 4461,
      "642c": 4462,
      "0a4d": 4463,
      "4265": 4464,
      "2e38": 4465,
      "00f9": 4466,
      "3a33": 4467,
      "95ae": 4468,
      "8f63": 4469,
      "03eb": 4470,
      "55ff": 4471,
      "d580": 4472,
      "7350": 4473,
      "3c02": 4474,
      "e280": 4475,
      "6d66": 4476,
      "6d90": 4477,
      "027f": 4478,
      "0138": 4479,
      "e370": 4480,
      "677a": 4481,
      "6256": 4482,
      "6774": 4483,
      "204e": 4484,
      "5732": 4485,
      "9880": 4486,
      "6e77": 4487,
      "6d91": 4488,
      "009b": 4489,
      "560d": 4490,
      "7102": 4491,
      "0680": 4492,
      "8880": 4493,
      "b502": 4494,
      "6b79": 4495,
      "0f01": 4496,
      "3606": 4497,
      "9290": 4498,
      "3066": 4499,
      "6d4b": 4500,
      "6849": 4501,
      "ff80": 4502,
      "00ae": 4503,
      "00a7": 4504,
      "00db": 4505,
      "5265": 4506,
      "c090": 4507,
      "6d75": 4508,
      "1780": 4509,
      "5130": 4510,
      "6d26": 4511,
      "5041": 4512,
      "4f67": 4513,
      "6d45": 4514,
      "3165": 4515,
      "00cf": 4516,
      "797d": 4517,
      "2e69": 4518,
      "6531": 4519,
      "a502": 4520,
      "fffb": 4521,
      "4e51": 4522,
      "2d78": 4523,
      "32fb": 4524,
      "334e": 4525,
      "4d58": 4526,
      "6230": 4527,
      "9980": 4528,
      "70a5": 4529,
      "4152": 4530,
      "974a": 4531,
      "7872": 4532,
      "4230": 4533,
      "ad02": 4534,
      "00b7": 4535,
      "15ae": 4536,
      "f302": 4537,
      "1b94": 4538,
      "320d": 4539,
      "6d46": 4540,
      "0185": 4541,
      "53e8": 4542,
      "324d": 4543,
      "00af": 4544,
      "6951": 4545,
      "8183": 4546,
      "8280": 4547,
      "3720": 4548,
      "d302": 4549,
      "1305": 4550,
      "6d4d": 4551,
      "1001": 4552,
      "6da3": 4553,
      "4954": 4554,
      "5a53": 4555,
      "6dff": 4556,
      "7867": 4557,
      "202f": 4558,
      "0b30": 4559,
      "80cb": 4560,
      "bc02": 4561,
      "fcfd": 4562,
      "2f54": 4563,
      "6664": 4564,
      "c019": 4565,
      "643a": 4566,
      "2e67": 4567,
      "466f": 4568,
      "2b70": 4569,
      "437c": 4570,
      "2208": 4571,
      "5002": 4572,
      "202a": 4573,
      "00ef": 4574,
      "6d76": 4575,
      "45ab": 4576,
      "ad29": 4577,
      "2069": 4578,
      "8e80": 4579,
      "6c66": 4580,
      "01e9": 4581,
      "7667": 4582,
      "0c0e": 4583,
      "5842": 4584,
      "0428": 4585,
      "4c49": 4586,
      "2383": 4587,
      "3d02": 4588,
      "6dfc": 4589,
      "fdff": 4590,
      "783c": 4591,
      "3a49": 4592,
      "5562": 4593,
      "e904": 4594,
      "024b": 4595,
      "afa9": 4596,
      "d990": 4597,
      "dfff": 4598,
      "5479": 4599,
      "0c06": 4600,
      "06fe": 4601,
      "6e75": 4602,
      "c032": 4603,
      "2e36": 4604,
      "3001": 4605,
      "7079": 4606,
      "3635": 4607,
      "7364": 4608,
      "0a80": 4609,
      "582d": 4610,
      "2b08": 4611,
      "640c": 4612,
      "322c": 4613,
      "1ee5": 4614,
      "db90": 4615,
      "046d": 4616,
      "0a21": 4617,
      "0a41": 4618,
      "6539": 4619,
      "0176": 4620,
      "6aa4": 4621,
      "02a0": 4622,
      "8780": 4623,
      "8f75": 4624,
      "4e37": 4625,
      "2848": 4626,
      "0290": 4627,
      "6a4a": 4628,
      "0a30": 4629,
      "80c2": 4630,
      "efff": 4631,
      "6dbf": 4632,
      "5850": 4633,
      "9080": 4634,
      "4e4f": 4635,
      "0613": 4636,
      "6028": 4637,
      "037e": 4638,
      "e902": 4639,
      "4a6b": 4640,
      "597d": 4641,
      "6d77": 4642,
      "7252": 4643,
      "6631": 4644,
      "6979": 4645,
      "3632": 4646,
      "6178": 4647,
      "02c0": 4648,
      "9780": 4649,
      "310b": 4650,
      "427a": 4651,
      "6d02": 4652,
      "0426": 4653,
      "d158": 4654,
      "6f20": 4655,
      "fbff": 4656,
      "2d6f": 4657,
      "00df": 4658,
      "4348": 4659,
      "9064": 4660,
      "3180": 4661,
      "a603": 4662,
      "6276": 4663,
      "ca02": 4664,
      "fe80": 4665,
      "5920": 4666,
      "a880": 4667,
      "3203": 4668,
      "4158": 4669,
      "03f7": 4670,
      "e290": 4671,
      "6f57": 4672,
      "2d45": 4673,
      "0377": 4674,
      "7320": 4675,
      "25ca": 4676,
      "663a": 4677,
      "2222": 4678,
      "2a20": 4679,
      "327a": 4680,
      "3880": 4681,
      "512a": 4682,
      "3878": 4683,
      "4345": 4684,
      "0186": 4685,
      "e206": 4686,
      "3c8d": 4687,
      "7478": 4688,
      "4959": 4689,
      "6d63": 4690,
      "7935": 4691,
      "0407": 4692,
      "db02": 4693,
      "7634": 4694,
      "05fe": 4695,
      "6002": 4696,
      "0373": 4697,
      "4552": 4698,
      "7f80": 4699,
      "fff8": 4700,
      "3502": 4701,
      "0e08": 4702,
      "0228": 4703,
      "be28": 4704,
      "0434": 4705,
      "6da8": 4706,
      "652c": 4707,
      "546d": 4708,
      "514c": 4709,
      "4446": 4710,
      "5b49": 4711,
      "018c": 4712,
      "656c": 4713,
      "2d3e": 4714,
      "7774": 4715,
      "fc80": 4716,
      "ce90": 4717,
      "4878": 4718,
      "6da6": 4719,
      "6d4c": 4720,
      "dc01": 4721,
      "5135": 4722,
      "5549": 4723,
      "10eb": 4724,
      "042c": 4725,
      "4d61": 4726,
      "5312": 4727,
      "5702": 4728,
      "3476": 4729,
      "6d50": 4730,
      "8202": 4731,
      "c033": 4732,
      "2231": 4733,
      "fd83": 4734,
      "430b": 4735,
      "ecb2": 4736,
      "2e4e": 4737,
      "1838": 4738,
      "4a62": 4739,
      "556e": 4740,
      "301e": 4741,
      "1038": 4742,
      "772e": 4743,
      "612e": 4744,
      "4e72": 4745,
      "3080": 4746,
      "0a03": 4747,
      "0179": 4748,
      "6d5a": 4749,
      "51c3": 4750,
      "0e30": 4751,
      "09a2": 4752,
      "7a79": 4753,
      "1880": 4754,
      "6f68": 4755,
      "6941": 4756,
      "2072": 4757,
      "506d": 4758,
      "1040": 4759,
      "024f": 4760,
      "574a": 4761,
      "5355": 4762,
      "6848": 4763,
      "3170": 4764,
      "3247": 4765,
      "e9ad": 4766,
      "e0ad": 4767,
      "0307": 4768,
      "530b": 4769,
      "1751": 4770,
      "58e8": 4771,
      "6220": 4772,
      "2052": 4773,
      "5b11": 4774,
      "4243": 4775,
      "b2d4": 4776,
      "4002": 4777,
      "6d48": 4778,
      "7175": 4779,
      "fff9": 4780,
      "5045": 4781,
      "6763": 4782,
      "aa02": 4783,
      "0780": 4784,
      "3014": 4785,
      "0902": 4786,
      "5066": 4787,
      "766b": 4788,
      "4c98": 4789,
      "6720": 4790,
      "0a45": 4791,
      "b901": 4792,
      "6148": 4793,
      "3a0a": 4794,
      "7301": 4795,
      "7243": 4796,
      "4753": 4797,
      "6b72": 4798,
      "796a": 4799,
      "2273": 4800,
      "6e6b": 4801,
      "7671": 4802,
      "01f2": 4803,
      "4e6f": 4804,
      "c280": 4805,
      "6f62": 4806,
      "6dc6": 4807,
      "0234": 4808,
      "4312": 4809,
      "6d71": 4810,
      "6da2": 4811,
      "576f": 4812,
      "185a": 4813,
      "80c1": 4814,
      "3365": 4815,
      "2068": 4816,
      "a802": 4817,
      "2905": 4818,
      "a080": 4819,
      "0189": 4820,
      "5601": 4821,
      "6962": 4822,
      "2180": 4823,
      "3002": 4824,
      "6dd7": 4825,
      "0343": 4826,
      "6d5b": 4827,
      "4953": 4828,
      "7d83": 4829,
      "6669": 4830,
      "4330": 4831,
      "80cd": 4832,
      "6231": 4833,
      "5243": 4834,
      "6db6": 4835,
      "5b95": 4836,
      "0254": 4837,
      "687a": 4838,
      "b10c": 4839,
      "6d4a": 4840,
      "6203": 4841,
      "7454": 4842,
      "3835": 4843,
      "6667": 4844,
      "7979": 4845,
      "7875": 4846,
      "6d53": 4847,
      "4153": 4848,
      "e780": 4849,
      "0182": 4850,
      "0580": 4851,
      "1f80": 4852,
      "506c": 4853,
      "ff0b": 4854,
      "1202": 4855,
      "c124": 4856,
      "ecfc": 4857,
      "6d56": 4858,
      "f3ff": 4859,
      "6a02": 4860,
      "0a90": 4861,
      "3546": 4862,
      "6daf": 4863,
      "59f1": 4864,
      "5349": 4865,
      "4f70": 4866,
      "4869": 4867,
      "5445": 4868,
      "03f6": 4869,
      "3a02": 4870,
      "8380": 4871,
      "3a30": 4872,
      "5b70": 4873,
      "653d": 4874,
      "6d72": 4875,
      "6a70": 4876,
      "3243": 4877,
      "0473": 4878,
      "cc80": 4879,
      "6dfd": 4880,
      "0353": 4881,
      "7169": 4882,
      "6d67": 4883,
      "6dab": 4884,
      "2002": 4885,
      "c002": 4886,
      "d080": 4887,
      "6957": 4888,
      "b302": 4889,
      "0503": 4890,
      "7861": 4891,
      "6d54": 4892,
      "6263": 4893,
      "0442": 4894,
      "57a2": 4895,
      "793c": 4896,
      "5074": 4897,
      "0a11": 4898,
      "6c6b": 4899,
      "7529": 4900,
      "6c20": 4901,
      "02fe": 4902,
      "4941": 4903,
      "6d34": 4904,
      "2d62": 4905,
      "e202": 4906,
      "3958": 4907,
      "b080": 4908,
      "0720": 4909,
      "6437": 4910,
      "9449": 4911,
      "310e": 4912,
      "7a53": 4913,
      "3b02": 4914,
      "2d20": 4915,
      "08e6": 4916,
      "3344": 4917,
      "2360": 4918,
      "01fc": 4919,
      "d880": 4920,
      "3c21": 4921,
      "0194": 4922,
      "4148": 4923,
      "426b": 4924,
      "6267": 4925,
      "3111": 4926,
      "0332": 4927,
      "7836": 4928,
      "1556": 4929,
      "3834": 4930,
      "4449": 4931,
      "3105": 4932,
      "6ded": 4933,
      "1869": 4934,
      "4e47": 4935,
      "3302": 4936,
      "5250": 4937,
      "51b4": 4938,
      "6f76": 4939,
      "6d92": 4940,
      "536e": 4941,
      "6171": 4942,
      "6934": 4943,
      "3839": 4944,
      "6e2e": 4945,
      "496d": 4946,
      "4f4d": 4947,
      "332e": 4948,
      "5058": 4949,
      "e89f": 4950,
      "6632": 4951,
      "6771": 4952,
      "3264": 4953,
      "2056": 4954,
      "4163": 4955,
      "7c60": 4956,
      "6e62": 4957,
      "2201": 4958,
      "6353": 4959,
      "4332": 4960,
      "4650": 4961,
      "c680": 4962,
      "7a38": 4963,
      "6dbe": 4964,
      "6dae": 4965,
      "7343": 4966,
      "8dc9": 4967,
      "010b": 4968,
      "1e02": 4969,
      "5b50": 4970,
      "beb1": 4971,
      "3731": 4972,
      "202d": 4973,
      "4e3a": 4974,
      "f9fa": 4975,
      "4249": 4976,
      "6d01": 4977,
      "0447": 4978,
      "2801": 4979,
      "0602": 4980,
      "f7ff": 4981,
      "0828": 4982,
      "59e9": 4983,
      "cd80": 4984,
      "1402": 4985,
      "f880": 4986,
      "8e90": 4987,
      "6b64": 4988,
      "017a": 4989,
      "e1f3": 4990,
      "01fa": 4991,
      "e190": 4992,
      "e93d": 4993,
      "7678": 4994,
      "6080": 4995,
      "4080": 4996,
      "646d": 4997,
      "6cfc": 4998,
      "5153": 4999,
      "4261": 5000,
      "320a": 5001,
      "6c80": 5002,
      "0142": 5003,
      "3204": 5004,
      "0463": 5005,
      "4f43": 5006,
      "936e": 5007,
      "4b12": 5008,
      "740c": 5009,
      "da0b": 5010,
      "de90": 5011,
      "1966": 5012,
      "0808": 5013,
      "71e9": 5014,
      "5b09": 5015,
      "6d86": 5016,
      "2d72": 5017,
      "1130": 5018,
      "fcff": 5019,
      "5b40": 5020,
      "c322": 5021,
      "6d96": 5022,
      "dd80": 5023,
      "32d7": 5024,
      "4820": 5025,
      "6234": 5026,
      "6379": 5027,
      "eb3c": 5028,
      "5969": 5029,
      "6cc0": 5030,
      "2542": 5031,
      "59f3": 5032,
      "0763": 5033,
      "4979": 5034,
      "4151": 5035,
      "3902": 5036,
      "72e9": 5037,
      "7b69": 5038,
      "0bff": 5039,
      "7b02": 5040,
      "4880": 5041,
      "cf90": 5042,
      "4259": 5043,
      "3320": 5044,
      "1380": 5045,
      "7371": 5046,
      "2d48": 5047,
      "58f9": 5048,
      "0933": 5049,
      "6d15": 5050,
      "6db2": 5051,
      "7308": 5052,
      "03c0": 5053,
      "6e53": 5054,
      "464a": 5055,
      "0c80": 5056,
      "3379": 5057,
      "6db3": 5058,
      "2bfb": 5059,
      "c880": 5060,
      "5272": 5061,
      "7575": 5062,
      "fdfc": 5063,
      "2264": 5064,
      "6232": 5065,
      "6012": 5066,
      "5a2b": 5067,
      "222c": 5068,
      "6639": 5069,
      "7703": 5070,
      "0a1e": 5071,
      "636b": 5072,
      "9509": 5073,
      "6b67": 5074,
      "3538": 5075,
      "c125": 5076,
      "764c": 5077,
      "61bd": 5078,
      "a190": 5079,
      "3669": 5080,
      "355a": 5081,
      "f0fd": 5082,
      "4843": 5083,
      "d590": 5084,
      "a402": 5085,
      "2f80": 5086,
      "3252": 5087,
      "3364": 5088,
      "f0ad": 5089,
      "25cb": 5090,
      "1b7e": 5091,
      "0436": 5092,
      "f9ff": 5093,
      "3441": 5094,
      "7c4c": 5095,
      "5794": 5096,
      "3c74": 5097,
      "6660": 5098,
      "6666": 5099,
      "faf9": 5100,
      "322d": 5101,
      "7876": 5102,
      "7161": 5103,
      "59ed": 5104,
      "4250": 5105,
      "0813": 5106,
      "4558": 5107,
      "183e": 5108,
      "4252": 5109,
      "fabd": 5110,
      "0314": 5111,
      "6d25": 5112,
      "ffef": 5113,
      "2053": 5114,
      "7271": 5115,
      "e680": 5116,
      "010a": 5117,
      "6675": 5118,
      "56e8": 5119,
      "11dc": 5120,
      "2301": 5121,
      "730c": 5122,
      "6571": 5123,
      "48f8": 5124,
      "6526": 5125,
      "2518": 5126,
      "4951": 5127,
      "4e2a": 5128,
      "273c": 5129,
      "6598": 5130,
      "1480": 5131,
      "096e": 5132,
      "3102": 5133,
      "4331": 5134,
      "0116": 5135,
      "0376": 5136,
      "356d": 5137,
      "6d8c": 5138,
      "6202": 5139,
      "9366": 5140,
      "4402": 5141,
      "4946": 5142,
      "6d82": 5143,
      "8980": 5144,
      "5a30": 5145,
      "df90": 5146,
      "e892": 5147,
      "92fe": 5148,
      "1d83": 5149,
      "fe02": 5150,
      "7064": 5151,
      "6c0d": 5152,
      "fb02": 5153,
      "4b48": 5154,
      "b653": 5155,
      "6961": 5156,
      "63ad": 5157,
      "0230": 5158,
      "513c": 5159,
      "3402": 5160,
      "4c80": 5161,
      "4743": 5162,
      "6ddf": 5163,
      "b002": 5164,
      "fc83": 5165,
      "5137": 5166,
      "6601": 5167,
      "1680": 5168,
      "326e": 5169,
      "6d5d": 5170,
      "2afa": 5171,
      "0468": 5172,
      "744e": 5173,
      "4a31": 5174,
      "6cb2": 5175,
      "2e64": 5176,
      "0901": 5177,
      "6b03": 5178,
      "2855": 5179,
      "372c": 5180,
      "4357": 5181,
      "ac80": 5182,
      "4902": 5183,
      "a494": 5184,
      "da12": 5185,
      "2f68": 5186,
      "534c": 5187,
      "6969": 5188,
      "1101": 5189,
      "4733": 5190,
      "0a35": 5191,
      "2268": 5192,
      "1802": 5193,
      "5d83": 5194,
      "e522": 5195,
      "0464": 5196,
      "7962": 5197,
      "48e9": 5198,
      "6d7d": 5199,
      "f370": 5200,
      "5064": 5201,
      "596c": 5202,
      "b53e": 5203,
      "ab02": 5204,
      "4e80": 5205,
      "2038": 5206,
      "7868": 5207,
      "104c": 5208,
      "2361": 5209,
      "e390": 5210,
      "23d7": 5211,
      "1980": 5212,
      "4c65": 5213,
      "7071": 5214,
      "7179": 5215,
      "6d2b": 5216,
      "444d": 5217,
      "d890": 5218,
      "7402": 5219,
      "4e50": 5220,
      "3702": 5221,
      "e0ac": 5222,
      "0b67": 5223,
      "5d2c": 5224,
      "4a49": 5225,
      "6836": 5226,
      "e5bb": 5227,
      "a002": 5228,
      "5831": 5229,
      "730b": 5230,
      "4602": 5231,
      "b307": 5232,
      "5201": 5233,
      "424a": 5234,
      "fff7": 5235,
      "5974": 5236,
      "2036": 5237,
      "352c": 5238,
      "5370": 5239,
      "f980": 5240,
      "4948": 5241,
      "3636": 5242,
      "a208": 5243,
      "2d54": 5244,
      "2347": 5245,
      "c4c1": 5246,
      "5b10": 5247,
      "6d83": 5248,
      "5b91": 5249,
      "2575": 5250,
      "6861": 5251,
      "e0a5": 5252,
      "6d8f": 5253,
      "7347": 5254,
      "6674": 5255,
      "6730": 5256,
      "3263": 5257,
      "ba80": 5258,
      "e480": 5259,
      "5046": 5260,
      "9462": 5261,
      "fd80": 5262,
      "6d93": 5263,
      "b55b": 5264,
      "3275": 5265,
      "3005": 5266,
      "4102": 5267,
      "474f": 5268,
      "4c41": 5269,
      "6d7f": 5270,
      "6d60": 5271,
      "4361": 5272,
      "1406": 5273,
      "484b": 5274,
      "414a": 5275,
      "2802": 5276,
      "3fff": 5277,
      "0370": 5278,
      "6deb": 5279,
      "726c": 5280,
      "d850": 5281,
      "51ef": 5282,
      "49f9": 5283,
      "086a": 5284,
      "6d97": 5285,
      "2eda": 5286,
      "0d02": 5287,
      "5b19": 5288,
      "4149": 5289,
      "e7ff": 5290,
      "6967": 5291,
      "676a": 5292,
      "6dfb": 5293,
      "91ef": 5294,
      "f7da": 5295,
      "a3ea": 5296,
      "2c66": 5297,
      "4702": 5298,
      "6d99": 5299,
      "7963": 5300,
      "0282": 5301,
      "0240": 5302,
      "7444": 5303,
      "10b8": 5304,
      "505b": 5305,
      "6436": 5306,
      "7411": 5307,
      "59fd": 5308,
      "10fa": 5309,
      "127e": 5310,
      "7cbb": 5311,
      "79ac": 5312,
      "625a": 5313,
      "6d5c": 5314,
      "045b": 5315,
      "1180": 5316,
      "7565": 5317,
      "f3a4": 5318,
      "4849": 5319,
      "d090": 5320,
      "721e": 5321,
      "b47d": 5322,
      "2041": 5323,
      "6e4d": 5324,
      "0b80": 5325,
      "5362": 5326,
      "6df5": 5327,
      "1276": 5328,
      "0e80": 5329,
      "6d7e": 5330,
      "6d95": 5331,
      "bf90": 5332,
      "0208": 5333,
      "4150": 5334,
      "0440": 5335,
      "f0a5": 5336,
      "7306": 5337,
      "3480": 5338,
      "d141": 5339,
      "174a": 5340,
      "4968": 5341,
      "0c90": 5342,
      "6402": 5343,
      "5880": 5344,
      "1d80": 5345,
      "634a": 5346,
      "32eb": 5347,
      "0f80": 5348,
      "208c": 5349,
      "0890": 5350,
      "7561": 5351,
      "0a1c": 5352,
      "6259": 5353,
      "4370": 5354,
      "5580": 5355,
      "c480": 5356,
      "f180": 5357,
      "048a": 5358,
      "2e73": 5359,
      "0435": 5360,
      "e490": 5361,
      "7263": 5362,
      "9e80": 5363,
      "11ef": 5364,
      "b7da": 5365,
      "5141": 5366,
      "726d": 5367,
      "6d98": 5368,
      "1102": 5369,
      "8602": 5370,
      "1280": 5371,
      "542c": 5372,
      "7901": 5373,
      "3666": 5374,
      "0140": 5375,
      "4547": 5376,
      "0a4c": 5377,
      "6b70": 5378,
      "0c02": 5379,
      "4e02": 5380,
      "6da0": 5381,
      "6802": 5382,
      "342c": 5383,
      "6447": 5384,
      "6d7b": 5385,
      "6d6b": 5386,
      "4e77": 5387,
      "04c0": 5388,
      "9fff": 5389,
      "a901": 5390,
      "4964": 5391,
      "7958": 5392,
      "3251": 5393,
      "a004": 5394,
      "7020": 5395,
      "5744": 5396,
      "114f": 5397,
      "6966": 5398,
      "0256": 5399,
      "5802": 5400,
      "0f06": 5401,
      "a3d7": 5402,
      "8901": 5403,
      "5363": 5404,
      "37da": 5405,
      "4f65": 5406,
      "725a": 5407,
      "6dad": 5408,
      "045f": 5409,
      "fb80": 5410,
      "6a69": 5411,
      "3965": 5412,
      "adaf": 5413,
      "cc77": 5414,
      "0341": 5415,
      "61a4": 5416,
      "6d81": 5417,
      "2a80": 5418,
      "6d88": 5419,
      "d1ef": 5420,
      "6dac": 5421,
      "6dbb": 5422,
      "6d84": 5423,
      "220d": 5424,
      "d958": 5425,
      "4f02": 5426,
      "304d": 5427,
      "4d72": 5428,
      "6d43": 5429,
      "0e02": 5430,
      "b105": 5431,
      "0205": 5432,
      "7971": 5433,
      "184f": 5434,
      "6d8e": 5435,
      "02ff": 5436,
      "169b": 5437,
      "5b03": 5438,
      "3b70": 5439,
      "0549": 5440,
      "f035": 5441,
      "7847": 5442,
      "020c": 5443,
      "ca01": 5444,
      "6d44": 5445,
      "f680": 5446,
      "10c0": 5447,
      "c180": 5448,
      "7b22": 5449,
      "e8ea": 5450,
      "6d42": 5451,
      "e8dd": 5452,
      "0965": 5453,
      "6d94": 5454,
      "7a5a": 5455,
      "6342": 5456,
      "6939": 5457,
      "4732": 5458,
      "6d8b": 5459,
      "2402": 5460,
      "7602": 5461,
      "e890": 5462,
      "92f7": 5463,
      "7802": 5464,
      "4d2d": 5465,
      "6274": 5466,
      "6264": 5467,
      "314b": 5468,
      "4248": 5469,
      "05c0": 5470,
      "786d": 5471,
      "6761": 5472,
      "57ff": 5473,
      "4653": 5474,
      "e035": 5475,
      "32f2": 5476,
      "fc02": 5477,
      "3a39": 5478,
      "10d5": 5479,
      "0f90": 5480,
      "2e74": 5481,
      "546e": 5482,
      "0548": 5483,
      "2303": 5484,
      "d102": 5485,
      "5102": 5486,
      "c12d": 5487,
      "872b": 5488,
      "3061": 5489,
      "db0b": 5490,
      "7052": 5491,
      "d848": 5492,
      "2ca2": 5493,
      "5b80": 5494,
      "6948": 5495,
      "2380": 5496,
      "4f49": 5497,
      "5f69": 5498,
      "ecd6": 5499,
      "3265": 5500,
      "3347": 5501,
      "e380": 5502,
      "0c04": 5503,
      "3c36": 5504,
      "0145": 5505,
      "323a": 5506,
      "ed02": 5507,
      "317b": 5508,
      "7b20": 5509,
      "169a": 5510,
      "bf4b": 5511,
      "0a55": 5512,
      "beb9": 5513,
      "c014": 5514,
      "3369": 5515,
      "4004": 5516,
      "6d89": 5517,
      "5646": 5518,
      "4202": 5519,
      "e8fa": 5520,
      "6748": 5521,
      "f0f5": 5522,
      "3863": 5523,
      "b680": 5524,
      "1580": 5525,
      "3271": 5526,
      "2049": 5527,
      "3f01": 5528,
      "4167": 5529,
      "4350": 5530,
      "5f02": 5531,
      "5402": 5532,
      "4d50": 5533,
      "0d80": 5534,
      "2b02": 5535,
      "c380": 5536,
      "a805": 5537,
      "0afe": 5538,
      "2280": 5539,
      "3352": 5540,
      "32c6": 5541,
      "5447": 5542,
      "ec47": 5543,
      "6773": 5544,
      "4169": 5545,
      "b035": 5546,
      "6d87": 5547,
      "3738": 5548,
      "1a80": 5549,
      "6d8a": 5550,
      "e03c": 5551,
      "6d8d": 5552,
      "5a90": 5553,
      "6da4": 5554,
      "6da5": 5555,
      "3802": 5556,
      "6e76": 5557,
      "fefd": 5558,
      "724a": 5559,
      "392c": 5560,
      "ffbf": 5561,
      "4a45": 5562,
      "77f0": 5563,
      "70ad": 5564,
      "3901": 5565,
      "6879": 5566,
      "5249": 5567,
      "6150": 5568,
      "0702": 5569,
      "01e3": 5570,
      "300f": 5571,
      "6d5f": 5572,
      "5436": 5573,
      "6880": 5574,
      "4b61": 5575,
      "4e32": 5576,
      "ba02": 5577,
      "8480": 5578,
      "e8e2": 5579,
      "1602": 5580,
      "206a": 5581,
      "3201": 5582,
      "4870": 5583,
      "f840": 5584,
      "e9bd": 5585,
      "354a": 5586,
      "50e9": 5587,
      "7353": 5588,
      "b880": 5589,
      "3d83": 5590,
      "8702": 5591,
      "01d9": 5592,
      "7335": 5593,
      "3a70": 5594,
      "206d": 5595,
      "6d37": 5596,
      "0456": 5597,
      "7a6b": 5598,
      "6d5e": 5599,
      "9190": 5600,
      "fcf5": 5601,
      "eb80": 5602,
      "c780": 5603,
      "8402": 5604,
      "3972": 5605,
      "4c70": 5606,
      "6d32": 5607,
      "385d": 5608,
      "6da7": 5609,
      "474e": 5610,
      "ecfd": 5611,
      "60fc": 5612,
      "4978": 5613,
      "6c02": 5614,
      "7a57": 5615,
      "0b02": 5616,
      "fa80": 5617,
      "4801": 5618,
      "e9a5": 5619,
      "624b": 5620,
      "75b2": 5621,
      "59f0": 5622,
      "0416": 5623,
      "6de5": 5624,
      "4168": 5625,
      "f5fd": 5626,
      "7b70": 5627,
      "41c1": 5628,
      "6d85": 5629,
      "2480": 5630,
      "49ec": 5631,
      "2d63": 5632,
      "e590": 5633,
      "466a": 5634,
      "0c07": 5635,
      "c135": 5636,
      "0455": 5637,
      "61ad": 5638,
      "4b19": 5639,
      "6da9": 5640,
      "6daa": 5641,
      "6579": 5642,
      "1c80": 5643,
      "e180": 5644,
      "ffcb": 5645,
      "2c70": 5646,
      "4451": 5647,
      "6e7f": 5648,
      "1165": 5649,
      "f9fc": 5650,
      "1ee8": 5651,
      "bb80": 5652,
      "505a": 5653,
      "6d36": 5654,
      "59ff": 5655,
      "7302": 5656,
      "0420": 5657,
      "4159": 5658,
      "2d4c": 5659,
      "7850": 5660,
      "6702": 5661,
      "5676": 5662,
      "7c57": 5663,
      "1630": 5664,
      "59fe": 5665,
      "0281": 5666,
      "3665": 5667,
      "4e54": 5668,
      "620d": 5669,
      "0483": 5670,
      "ff3f": 5671,
      "5280": 5672,
      "7170": 5673,
      "656f": 5674,
      "0d90": 5675,
      "7b0c": 5676,
      "0235": 5677,
      "c12f": 5678,
      "355b": 5679,
      "6da1": 5680,
      "4d6b": 5681,
      "6d9b": 5682,
      "6101": 5683,
      "334a": 5684,
      "4e31": 5685,
      "e980": 5686,
      "9810": 5687,
      "fdfd": 5688,
      "8902": 5689,
      "0390": 5690,
      "7854": 5691,
      "44c1": 5692,
      "3803": 5693,
      "3253": 5694,
      "7902": 5695,
      "0690": 5696,
      "3851": 5697,
      "e9ac": 5698,
      "8580": 5699,
      "a247": 5700,
      "dd83": 5701,
      "04a0": 5702,
      "3762": 5703,
      "6de7": 5704,
      "bd02": 5705,
      "4502": 5706,
      "6dcf": 5707,
      "ec80": 5708,
      "ecbb": 5709,
      "3226": 5710,
      "eb86": 5711,
      "7870": 5712,
      "2501": 5713,
      "da90": 5714,
      "665a": 5715,
      "6db5": 5716,
      "92f6": 5717,
      "4831": 5718,
      "4c6f": 5719,
      "4633": 5720,
      "d480": 5721,
      "6d9a": 5722,
      "6a42": 5723,
      "93fe": 5724,
      "80bf": 5725,
      "0910": 5726,
      "c101": 5727,
      "0498": 5728,
      "09c0": 5729,
      "0803": 5730,
      "f280": 5731,
      "44e8": 5732,
      "0331": 5733,
      "6070": 5734,
      "6602": 5735,
      "e8a0": 5736,
      "2078": 5737,
      "ecbf": 5738,
      "ffe7": 5739,
      "2272": 5740,
      "01bd": 5741,
      "4659": 5742,
      "1376": 5743,
      "9602": 5744,
      "4231": 5745,
      "49c9": 5746,
      "6502": 5747,
      "3003": 5748,
      "3158": 5749,
      "4e65": 5750,
      "54e8": 5751,
      "58cc": 5752,
      "ee80": 5753,
      "6d9d": 5754,
      "65c2": 5755,
      "2452": 5756,
      "5bff": 5757,
      "6dc7": 5758,
      "e9f3": 5759,
      "2602": 5760,
      "4051": 5761,
      "8802": 5762,
      "2e80": 5763,
      "2b4b": 5764,
      "4879": 5765,
      "733a": 5766,
      "da1b": 5767,
      "5b12": 5768,
      "6e22": 5769,
      "1e90": 5770,
      "1e17": 5771,
      "69b5": 5772,
      "01f3": 5773,
      "d180": 5774,
      "9502": 5775,
      "ea80": 5776,
      "6680": 5777,
      "7a69": 5778,
      "faff": 5779,
      "1e99": 5780,
      "2502": 5781,
      "6312": 5782,
      "5262": 5783,
      "be90": 5784,
      "0425": 5785,
      "5048": 5786,
      "c980": 5787,
      "4ad8": 5788,
      "e302": 5789,
      "73e9": 5790,
      "7ee9": 5791,
      "048c": 5792,
      "4e71": 5793,
      "034b": 5794,
      "0790": 5795,
      "5d7d": 5796,
      "2980": 5797,
      "3a22": 5798,
      "454a": 5799,
      "365a": 5800,
      "5353": 5801,
      "6de9": 5802,
      "4201": 5803,
      "2a79": 5804,
      "6637": 5805,
      "4e4d": 5806,
      "6dfe": 5807,
      "e690": 5808,
      "6dda": 5809,
      "4b59": 5810,
      "6b63": 5811,
      "5853": 5812,
      "b370": 5813,
      "1043": 5814,
      "7576": 5815,
      "5bea": 5816,
      "d680": 5817,
      "607c": 5818,
      "5a67": 5819,
      "6f02": 5820,
      "4520": 5821,
      "5d3c": 5822,
      "5375": 5823,
      "6d9c": 5824,
      "492e": 5825,
      "734a": 5826,
      "7c22": 5827,
      "1803": 5828,
      "ecff": 5829,
      "703c": 5830,
      "6d9e": 5831,
      "7279": 5832,
      "db80": 5833,
      "0160": 5834,
      "e905": 5835,
      "6238": 5836,
      "3680": 5837,
      "a040": 5838,
      "f6f5": 5839,
      "b46c": 5840,
      "5465": 5841,
      "6d39": 5842,
      "0175": 5843,
      "0481": 5844,
      "2580": 5845,
      "044e": 5846,
      "48ec": 5847,
      "5b1b": 5848,
      "f134": 5849,
      "fdbf": 5850,
      "1502": 5851,
      "2d43": 5852,
      "4e58": 5853,
      "f9ad": 5854,
      "f9e3": 5855,
      "4a59": 5856,
      "9802": 5857,
      "6f7a": 5858,
      "344b": 5859,
      "3346": 5860,
      "226e": 5861,
      "f780": 5862,
      "5602": 5863,
      "8680": 5864,
      "8c02": 5865,
      "6653": 5866,
      "3101": 5867,
      "5a01": 5868,
      "5902": 5869,
      "d002": 5870,
      "2001": 5871,
      "aa80": 5872,
      "75bb": 5873,
      "7479": 5874,
      "08c5": 5875,
      "635a": 5876,
      "5d02": 5877,
      "5b1a": 5878,
      "4738": 5879,
      "642d": 5880,
      "8502": 5881,
      "2d02": 5882,
      "04a2": 5883,
      "6a79": 5884,
      "686c": 5885,
      "6d9f": 5886,
      "9d83": 5887,
      "9102": 5888,
      "4b0b": 5889,
      "d380": 5890,
      "a104": 5891,
      "7fef": 5892,
      "fb70": 5893,
      "db12": 5894,
      "787a": 5895,
      "7322": 5896,
      "a602": 5897,
      "4b01": 5898,
      "01c2": 5899,
      "3d31": 5900,
      "314e": 5901,
      "4254": 5902,
      "d980": 5903,
      "3e80": 5904,
      "6968": 5905,
      "0448": 5906,
      "b102": 5907,
      "0936": 5908,
      "8276": 5909,
      "80ce": 5910,
      "2276": 5911,
      "5b1e": 5912,
      "1403": 5913,
      "01e6": 5914,
      "6db7": 5915,
      "a615": 5916,
      "6a43": 5917,
      "abff": 5918,
      "4c09": 5919,
      "0810": 5920,
      "343a": 5921,
      "77a1": 5922,
      "4a0a": 5923,
      "2ada": 5924,
      "6e4e": 5925,
      "fd02": 5926,
      "3163": 5927,
      "5202": 5928,
      "de80": 5929,
      "2c80": 5930,
      "3164": 5931,
      "dc98": 5932,
      "32d6": 5933,
      "776b": 5934,
      "6335": 5935,
      "01d7": 5936,
      "7532": 5937,
      "60a5": 5938,
      "0356": 5939,
      "0a6e": 5940,
      "50ec": 5941,
      "9302": 5942,
      "044c": 5943,
      "f1d1": 5944,
      "0460": 5945,
      "32ff": 5946,
      "4536": 5947,
      "7a70": 5948,
      "7859": 5949,
      "3209": 5950,
      "0451": 5951,
      "bc90": 5952,
      "7d46": 5953,
      "85a6": 5954,
      "6373": 5955,
      "5025": 5956,
      "7163": 5957,
      "10b9": 5958,
      "54d8": 5959,
      "4731": 5960,
      "8d02": 5961,
      "703d": 5962,
      "3761": 5963,
      "3980": 5964,
      "3171": 5965,
      "1843": 5966,
      "ffdf": 5967,
      "a4d1": 5968,
      "3d28": 5969,
      "5439": 5970,
      "9997": 5971,
      "431b": 5972,
      "4c58": 5973,
      "8790": 5974,
      "394e": 5975,
      "2e66": 5976,
      "7877": 5977,
      "fe38": 5978,
      "7ec4": 5979,
      "fa02": 5980,
      "e580": 5981,
      "4aa1": 5982,
      "3547": 5983,
      "f580": 5984,
      "2076": 5985,
      "fc6c": 5986,
      "28b4": 5987,
      "4053": 5988,
      "4779": 5989,
      "4580": 5990,
      "afb9": 5991,
      "4d02": 5992,
      "0450": 5993,
      "6a80": 5994,
      "9402": 5995,
      "01cc": 5996,
      "5622": 5997,
      "9277": 5998,
      "6de3": 5999,
      "1a02": 6000,
      "68d1": 6001,
      "60ad": 6002,
      "fa90": 6003,
      "6d3c": 6004,
      "6dec": 6005,
      "4469": 6006,
      "f1a5": 6007,
      "e0fc": 6008,
      "f8d0": 6009,
      "f480": 6010,
      "59fa": 6011,
      "cfff": 6012,
      "14b5": 6013,
      "814c": 6014,
      "063c": 6015,
      "0441": 6016,
      "7747": 6017,
      "4d6c": 6018,
      "0ec0": 6019,
      "5303": 6020,
      "4a61": 6021,
      "3018": 6022,
      "f1c8": 6023,
      "043c": 6024,
      "666d": 6025,
      "d979": 6026,
      "6e02": 6027,
      "5502": 6028,
      "f93c": 6029,
      "698f": 6030,
      "b001": 6031,
      "c11d": 6032,
      "fe47": 6033,
      "5941": 6034,
      "1c02": 6035,
      "04b8": 6036,
      "0161": 6037,
      "354b": 6038,
      "0383": 6039,
      "2270": 6040,
      "3269": 6041,
      "c017": 6042,
      "4a01": 6043,
      "d190": 6044,
      "fdbe": 6045,
      "0866": 6046,
      "8945": 6047,
      "632d": 6048,
      "014c": 6049,
      "e908": 6050,
      "6d23": 6051,
      "6242": 6052,
      "126e": 6053,
      "07fb": 6054,
      "047b": 6055,
      "cf80": 6056,
      "1c71": 6057,
      "6d03": 6058,
      "8a02": 6059,
      "254b": 6060,
      "2102": 6061,
      "d290": 6062,
      "926e": 6063,
      "b132": 6064,
      "786e": 6065,
      "0d31": 6066,
      "70cc": 6067,
      "7c36": 6068,
      "6dcb": 6069,
      "48cd": 6070,
      "5b0b": 6071,
      "606d": 6072,
      "6b35": 6073,
      "497c": 6074,
      "2ffc": 6075,
      "1a01": 6076,
      "a605": 6077,
      "0247": 6078,
      "041c": 6079,
      "a290": 6080,
      "0449": 6081,
      "6d1c": 6082,
      "6c23": 6083,
      "7754": 6084,
      "d780": 6085,
      "fcbe": 6086,
      "6db1": 6087,
      "ff90": 6088,
      "5801": 6089,
      "0424": 6090,
      "6a51": 6091,
      "344a": 6092,
      "fef9": 6093,
      "140d": 6094,
      "6302": 6095,
      "60a4": 6096,
      "0430": 6097,
      "3166": 6098,
      "a202": 6099,
      "2f02": 6100,
      "ed23": 6101,
      "6d3a": 6102,
      "01b0": 6103,
      "6a59": 6104,
      "ea06": 6105,
      "edd6": 6106,
      "0e90": 6107,
      "49c1": 6108,
      "5c02": 6109,
      "4e4c": 6110,
      "5e02": 6111,
      "3961": 6112,
      "7172": 6113,
      "9266": 6114,
      "706b": 6115,
      "6432": 6116,
      "4d80": 6117,
      "edff": 6118,
      "2b80": 6119,
      "6df6": 6120,
      "8f90": 6121,
      "7120": 6122,
      "7ddf": 6123,
      "6b02": 6124,
      "6401": 6125,
      "6a5a": 6126,
      "245b": 6127,
      "a6a0": 6128,
      "ed80": 6129,
      "fb87": 6130,
      "0a54": 6131,
      "531b": 6132,
      "2e02": 6133,
      "ae14": 6134,
      "0479": 6135,
      "c113": 6136,
      "0444": 6137,
      "0493": 6138,
      "2620": 6139,
      "4059": 6140,
      "be80": 6141,
      "6253": 6142,
      "6e09": 6143,
      "c114": 6144,
      "06c7": 6145,
      "0709": 6146,
      "6f54": 6147,
      "ffcf": 6148,
      "a10c": 6149,
      "59e8": 6150,
      "ce80": 6151,
      "693d": 6152,
      "8301": 6153,
      "6780": 6154,
      "5965": 6155,
      "ca80": 6156,
      "d280": 6157,
      "6266": 6158,
      "715d": 6159,
      "fe69": 6160,
      "0291": 6161,
      "392d": 6162,
      "4c90": 6163,
      "4279": 6164,
      "5059": 6165,
      "4739": 6166,
      "73e0": 6167,
      "6dbd": 6168,
      "6a50": 6169,
      "b480": 6170,
      "324b": 6171,
      "3380": 6172,
      "0524": 6173,
      "1308": 6174,
      "0320": 6175,
      "332c": 6176,
      "5db1": 6177,
      "0a15": 6178,
      "0f02": 6179,
      "79ff": 6180,
      "66b0": 6181,
      "7dff": 6182,
      "ebff": 6183,
      "3580": 6184,
      "382c": 6185,
      "530d": 6186,
      "1b66": 6187,
      "6db0": 6188,
      "5c30": 6189,
      "d151": 6190,
      "044b": 6191,
      "452e": 6192,
      "6db4": 6193,
      "ff7f": 6194,
      "347a": 6195,
      "a4d9": 6196,
      "9f02": 6197,
      "4531": 6198,
      "48d8": 6199,
      "e86b": 6200,
      "9a02": 6201,
      "4e0c": 6202,
      "2d80": 6203,
      "4949": 6204,
      "d148": 6205,
      "e13d": 6206,
      "08fe": 6207,
      "4c79": 6208,
      "656a": 6209,
      "3393": 6210,
      "6eae": 6211,
      "3c7a": 6212,
      "49c8": 6213,
      "25b8": 6214,
      "2780": 6215,
      "5858": 6216,
      "9e99": 6217,
      "517a": 6218,
      "1331": 6219,
      "7890": 6220,
      "b980": 6221,
      "0986": 6222,
      "0178": 6223,
      "e8e0": 6224,
      "6c39": 6225,
      "ea01": 6226,
      "e602": 6227,
      "f502": 6228,
      "a12a": 6229,
      "6e31": 6230,
      "534e": 6231,
      "5263": 6232,
      "2392": 6233,
      "61b4": 6234,
      "6d22": 6235,
      "a60c": 6236,
      "3179": 6237,
      "01cd": 6238,
      "d058": 6239,
      "1190": 6240,
      "0704": 6241,
      "20cc": 6242,
      "5803": 6243,
      "67a8": 6244,
      "4073": 6245,
      "ab70": 6246,
      "6a47": 6247,
      "5b5f": 6248,
      "08c0": 6249,
      "bea1": 6250,
      "a005": 6251,
      "1f02": 6252,
      "8c3f": 6253,
      "4655": 6254,
      "472a": 6255,
      "c8b4": 6256,
      "3931": 6257,
      "fcb6": 6258,
      "9f80": 6259,
      "7375": 6260,
      "58f1": 6261,
      "cc99": 6262,
      "f8ba": 6263,
      "784d": 6264,
      "0554": 6265,
      "7535": 6266,
      "b180": 6267,
      "5a17": 6268,
      "d14b": 6269,
      "3e02": 6270,
      "c6ac": 6271,
      "7702": 6272,
      "f1fc": 6273,
      "d551": 6274,
      "0f31": 6275,
      "7338": 6276,
      "9001": 6277,
      "6753": 6278,
      "1902": 6279,
      "5468": 6280,
      "683a": 6281,
      "1d02": 6282,
      "63d2": 6283,
      "482f": 6284,
      "b1b4": 6285,
      "6b33": 6286,
      "5516": 6287,
      "5049": 6288,
      "e702": 6289,
      "1b80": 6290,
      "a630": 6291,
      "1860": 6292,
      "d9e9": 6293,
      "9068": 6294,
      "776d": 6295,
      "3463": 6296,
      "a680": 6297,
      "ec2b": 6298,
      "e0fa": 6299,
      "ef80": 6300,
      "76e9": 6301,
      "6476": 6302,
      "8102": 6303,
      "023a": 6304,
      "f5fc": 6305,
      "8b02": 6306,
      "fa81": 6307,
      "3116": 6308,
      "626b": 6309,
      "c8ad": 6310,
      "0259": 6311,
      "da80": 6312,
      "5145": 6313,
      "b4a0": 6314,
      "4950": 6315,
      "2d09": 6316,
      "6331": 6317,
      "4f79": 6318,
      "255a": 6319,
      "09dc": 6320,
      "6280": 6321,
      "1b02": 6322,
      "b780": 6323,
      "017e": 6324,
      "047e": 6325,
      "7072": 6326,
      "a102": 6327,
      "0486": 6328,
      "6eec": 6329,
      "304e": 6330,
      "8910": 6331,
      "027b": 6332,
      "5a56": 6333,
      "7177": 6334,
      "6e2f": 6335,
      "354e": 6336,
      "ff9f": 6337,
      "782b": 6338,
      "2d34": 6339,
      "5d27": 6340,
      "f0f3": 6341,
      "4e23": 6342,
      "64d6": 6343,
      "5157": 6344,
      "15e2": 6345,
      "0120": 6346,
      "ece5": 6347,
      "d859": 6348,
      "7134": 6349,
      "afb0": 6350,
      "ac03": 6351,
      "9bfe": 6352,
      "e802": 6353,
      "60bd": 6354,
      "f3e0": 6355,
      "8f80": 6356,
      "3f15": 6357,
      "202e": 6358,
      "9202": 6359,
      "8f02": 6360,
      "b702": 6361,
      "5047": 6362,
      "a48f": 6363,
      "4233": 6364,
      "1962": 6365,
      "766a": 6366,
      "dbff": 6367,
      "5948": 6368,
      "424c": 6369,
      "7972": 6370,
      "5090": 6371,
      "6168": 6372,
      "4830": 6373,
      "f93d": 6374,
      "5e76": 6375,
      "3c34": 6376,
      "0162": 6377,
      "5554": 6378,
      "8525": 6379,
      "2369": 6380,
      "3a3a": 6381,
      "ccb6": 6382,
      "4048": 6383,
      "f34a": 6384,
      "8379": 6385,
      "7340": 6386,
      "8630": 6387,
      "5154": 6388,
      "7250": 6389,
      "48f9": 6390,
      "2346": 6391,
      "0853": 6392,
      "806e": 6393,
      "2ad7": 6394,
      "5b48": 6395,
      "7502": 6396,
      "7663": 6397,
      "2203": 6398,
      "b46b": 6399,
      "d4c0": 6400,
      "5a31": 6401,
      "59fb": 6402,
      "7ecd": 6403,
      "6b01": 6404,
      "c14a": 6405,
      "50b1": 6406,
      "59fc": 6407,
      "ff92": 6408,
      "f702": 6409,
      "3123": 6410,
      "624a": 6411,
      "735a": 6412,
      "e0a4": 6413,
      "47d8": 6414,
      "3602": 6415,
      "502d": 6416,
      "bc80": 6417,
      "3341": 6418,
      "cb01": 6419,
      "6247": 6420,
      "067e": 6421,
      "67f9": 6422,
      "4861": 6423,
      "7564": 6424,
      "028c": 6425,
      "3d0b": 6426,
      "c202": 6427,
      "03ff": 6428,
      "7077": 6429,
      "4544": 6430,
      "c8cd": 6431,
      "e216": 6432,
      "2b01": 6433,
      "0443": 6434,
      "bbe1": 6435,
      "b580": 6436,
      "0484": 6437,
      "a780": 6438,
      "32ac": 6439,
      "6d3d": 6440,
      "5231": 6441,
      "2471": 6442,
      "7e02": 6443,
      "4f80": 6444,
      "9801": 6445,
      "d802": 6446,
      "4a41": 6447,
      "8230": 6448,
      "1267": 6449,
      "3947": 6450,
      "e270": 6451,
      "7233": 6452,
      "326b": 6453,
      "2653": 6454,
      "2702": 6455,
      "0967": 6456,
      "bf80": 6457,
      "7168": 6458,
      "0236": 6459,
      "bd83": 6460,
      "a690": 6461,
      "5d5a": 6462,
      "757a": 6463,
      "f660": 6464,
      "704c": 6465,
      "ec02": 6466,
      "808e": 6467,
      "5219": 6468,
      "0482": 6469,
      "5133": 6470,
      "61c0": 6471,
      "64cf": 6472,
      "f602": 6473,
      "686b": 6474,
      "79e9": 6475,
      "3918": 6476,
      "7058": 6477,
      "afa1": 6478,
      "a115": 6479,
      "7a4a": 6480,
      "ff04": 6481,
      "e3ad": 6482,
      "9c02": 6483,
      "e8da": 6484,
      "60ac": 6485,
      "6532": 6486,
      "4343": 6487,
      "9370": 6488,
      "4a48": 6489,
      "e201": 6490,
      "eb02": 6491,
      "79a5": 6492,
      "7969": 6493,
      "5725": 6494,
      "5259": 6495,
      "0433": 6496,
      "e790": 6497,
      "bd90": 6498,
      "61fc": 6499,
      "111c": 6500,
      "5149": 6501,
      "1eb5": 6502,
      "790d": 6503,
      "4758": 6504,
      "e03d": 6505,
      "5073": 6506,
      "476e": 6507,
      "01ac": 6508,
      "4c43": 6509,
      "f5ff": 6510,
      "c902": 6511,
      "0d73": 6512,
      "88b0": 6513,
      "7c02": 6514,
      "6466": 6515,
      "3a4b": 6516,
      "e402": 6517,
      "3780": 6518,
      "4346": 6519,
      "4565": 6520,
      "6731": 6521,
      "2be2": 6522,
      "12ee": 6523,
      "6d29": 6524,
      "554e": 6525,
      "7247": 6526,
      "8a80": 6527,
      "0a78": 6528,
      "0a4e": 6529,
      "4a53": 6530,
      "04a3": 6531,
      "bd80": 6532,
      "4701": 6533,
      "3282": 6534,
      "a011": 6535,
      "c84a": 6536,
      "644c": 6537,
      "d902": 6538,
      "4868": 6539,
      "2b79": 6540,
      "8b80": 6541,
      "937e": 6542,
      "fff6": 6543,
      "3783": 6544,
      "3363": 6545,
      "7551": 6546,
      "1702": 6547,
      "7651": 6548,
      "6fff": 6549,
      "4364": 6550,
      "03fd": 6551,
      "63ff": 6552,
      "ecf5": 6553,
      "df80": 6554,
      "b65a": 6555,
      "5890": 6556,
      "b53f": 6557,
      "fc6d": 6558,
      "a302": 6559,
      "41c8": 6560,
      "043e": 6561,
      "2e34": 6562,
      "0a7b": 6563,
      "c602": 6564,
      "6c62": 6565,
      "5a1b": 6566,
      "1077": 6567,
      "e5ff": 6568,
      "07c0": 6569,
      "6dbc": 6570,
      "6d2d": 6571,
      "321d": 6572,
      "33d6": 6573,
      "7922": 6574,
      "80dc": 6575,
      "6980": 6576,
      "6180": 6577,
      "4e08": 6578,
      "d1b4": 6579,
      "5979": 6580,
      "d1c9": 6581,
      "8e50": 6582,
      "2059": 6583,
      "80d5": 6584,
      "77da": 6585,
      "0a6c": 6586,
      "ae80": 6587,
      "e1b5": 6588,
      "5a37": 6589,
      "6a6f": 6590,
      "7d02": 6591,
      "5bac": 6592,
      "0606": 6593,
      "6001": 6594,
      "3549": 6595,
      "b802": 6596,
      "4750": 6597,
      "f343": 6598,
      "a9a5": 6599,
      "cc02": 6600,
      "77ff": 6601,
      "7772": 6602,
      "e83c": 6603,
      "045a": 6604,
      "045c": 6605,
      "254e": 6606,
      "0452": 6607,
      "6b75": 6608,
      "c36a": 6609,
      "d363": 6610,
      "21d7": 6611,
      "6e2c": 6612,
      "c362": 6613,
      "4aaf": 6614,
      "afff": 6615,
      "5120": 6616,
      "f990": 6617,
      "3c56": 6618,
      "6b78": 6619,
      "a497": 6620,
      "1166": 6621,
      "41c9": 6622,
      "7edd": 6623,
      "7068": 6624,
      "2a42": 6625,
      "a653": 6626,
      "b280": 6627,
      "88e3": 6628,
      "7060": 6629,
      "5261": 6630,
      "4280": 6631,
      "58c4": 6632,
      "f7f0": 6633,
      "f402": 6634,
      "7b01": 6635,
      "5972": 6636,
      "f516": 6637,
      "6778": 6638,
      "a023": 6639,
      "7202": 6640,
      "78ad": 6641,
      "6651": 6642,
      "4eff": 6643,
      "7976": 6644,
      "0713": 6645,
      "4001": 6646,
      "03d4": 6647,
      "c9ff": 6648,
      "0462": 6649,
      "d878": 6650,
      "4862": 6651,
      "c515": 6652,
      "0283": 6653,
      "5251": 6654,
      "5fff": 6655,
      "d370": 6656,
      "3865": 6657,
      "6956": 6658,
      "ed22": 6659,
      "3062": 6660,
      "f8c1": 6661,
      "fe90": 6662,
      "4180": 6663,
      "0454": 6664,
      "467a": 6665,
      "5633": 6666,
      "e52a": 6667,
      "f802": 6668,
      "5a77": 6669,
      "59f4": 6670,
      "0b7e": 6671,
      "7964": 6672,
      "d9c8": 6673,
      "b2f9": 6674,
      "ec22": 6675,
      "7536": 6676,
      "5834": 6677,
      "2f34": 6678,
      "5269": 6679,
      "10c5": 6680,
      "3557": 6681,
      "2a4a": 6682,
      "3ec3": 6683,
      "a490": 6684,
      "5f6c": 6685,
      "7135": 6686,
      "f9d1": 6687,
      "6272": 6688,
      "49e0": 6689,
      "5b99": 6690,
      "6959": 6691,
      "4553": 6692,
      "4d33": 6693,
      "052c": 6694,
      "1873": 6695,
      "b128": 6696,
      "4976": 6697,
      "4b40": 6698,
      "6107": 6699,
      "334b": 6700,
      "676b": 6701,
      "6902": 6702,
      "6dba": 6703,
      "e002": 6704,
      "1301": 6705,
      "c858": 6706,
      "b5ed": 6707,
      "5bc6": 6708,
      "7948": 6709,
      "59f2": 6710,
      "7171": 6711,
      "fcec": 6712,
      "cb80": 6713,
      "0525": 6714,
      "7dd7": 6715,
      "3648": 6716,
      "9201": 6717,
      "044f": 6718,
      "3279": 6719,
      "0437": 6720,
      "e8e1": 6721,
      "9010": 6722,
      "e8ff": 6723,
      "4b90": 6724,
      "5854": 6725,
      "6525": 6726,
      "636d": 6727,
      "f841": 6728,
      "0769": 6729,
      "eb70": 6730,
      "32fa": 6731,
      "7153": 6732,
      "454d": 6733,
      "5004": 6734,
      "0b70": 6735,
      "d9c9": 6736,
      "4d01": 6737,
      "285b": 6738,
      "6c4f": 6739,
      "d7ff": 6740,
      "4d32": 6741,
      "dad8": 6742,
      "3c68": 6743,
      "6ddb": 6744,
      "8723": 6745,
      "fefe": 6746,
      "725f": 6747,
      "0458": 6748,
      "c126": 6749,
      "5776": 6750,
      "10cc": 6751,
      "613d": 6752,
      "2307": 6753,
      "4780": 6754,
      "40c8": 6755,
      "0496": 6756,
      "551d": 6757,
      "0535": 6758,
      "0172": 6759,
      "e8a2": 6760,
      "f6ff": 6761,
      "4c99": 6762,
      "239a": 6763,
      "c8f8": 6764,
      "7342": 6765,
      "7a59": 6766,
      "32ea": 6767,
      "99fe": 6768,
      "4851": 6769,
      "74b0": 6770,
      "3290": 6771,
      "6451": 6772,
      "675d": 6773,
      "4669": 6774,
      "a487": 6775,
      "6e39": 6776,
      "0934": 6777,
      "9f75": 6778,
      "7690": 6779,
      "f52b": 6780,
      "6db8": 6781,
      "4752": 6782,
      "766e": 6783,
      "b4c1": 6784,
      "e5fc": 6785,
      "991e": 6786,
      "2057": 6787,
      "c26a": 6788,
      "c263": 6789,
      "f8d8": 6790,
      "010c": 6791,
      "6380": 6792,
      "2552": 6793,
      "0f5d": 6794,
      "9e02": 6795,
      "8bf0": 6796,
      "7062": 6797,
      "cd26": 6798,
      "aade": 6799,
      "f379": 6800,
      "4574": 6801,
      "7825": 6802,
      "383a": 6803,
      "d9c1": 6804,
      "0264": 6805,
      "c01d": 6806,
      "2bcb": 6807,
      "0248": 6808,
      "5a68": 6809,
      "1684": 6810,
      "26d3": 6811,
      "1eb6": 6812,
      "7039": 6813,
      "3278": 6814,
      "9919": 6815,
      "4551": 6816,
      "336b": 6817,
      "594d": 6818,
      "4f50": 6819,
      "1783": 6820,
      "3272": 6821,
      "e8d1": 6822,
      "6255": 6823,
      "7a51": 6824,
      "043d": 6825,
      "5173": 6826,
      "103e": 6827,
      "745f": 6828,
      "7bd7": 6829,
      "c137": 6830,
      "9702": 6831,
      "77bf": 6832,
      "6e6a": 6833,
      "6f42": 6834,
      "0466": 6835,
      "6db9": 6836,
      "fe7f": 6837,
      "faad": 6838,
      "5b63": 6839,
      "664f": 6840,
      "a008": 6841,
      "b402": 6842,
      "8b26": 6843,
      "5273": 6844,
      "058c": 6845,
      "6b71": 6846,
      "f304": 6847,
      "0423": 6848,
      "425a": 6849,
      "14b4": 6850,
      "a47c": 6851,
      "c649": 6852,
      "2f75": 6853,
      "454f": 6854,
      "1524": 6855,
      "22b4": 6856,
      "423e": 6857,
      "bc9b": 6858,
      "01e2": 6859,
      "a050": 6860,
      "6430": 6861,
      "b6a0": 6862,
      "362c": 6863,
      "70f3": 6864,
      "5b59": 6865,
      "3464": 6866,
      "0488": 6867,
      "ec15": 6868,
      "7158": 6869,
      "ac59": 6870,
      "0b01": 6871,
      "ac92": 6872,
      "2b69": 6873,
      "43a8": 6874,
      "ea02": 6875,
      "7961": 6876,
      "9aea": 6877,
      "747a": 6878,
      "7a43": 6879,
      "fa96": 6880,
      "70e0": 6881,
      "8b70": 6882,
      "5aa1": 6883,
      "0114": 6884,
      "b902": 6885,
      "1e01": 6886,
      "02b7": 6887,
      "4f53": 6888,
      "416d": 6889,
      "9971": 6890,
      "4d78": 6891,
      "4874": 6892,
      "5a69": 6893,
      "a702": 6894,
      "7ed5": 6895,
      "3c4e": 6896,
      "d1c8": 6897,
      "9d02": 6898,
      "0446": 6899,
      "5358": 6900,
      "c102": 6901,
      "bbda": 6902,
      "4b80": 6903,
      "6480": 6904,
      "fdfe": 6905,
      "f856": 6906,
      "dfb0": 6907,
      "7949": 6908,
      "045d": 6909,
      "f2ad": 6910,
      "3a80": 6911,
      "3118": 6912,
      "0a26": 6913,
      "7476": 6914,
      "1370": 6915,
      "49f0": 6916,
      "8ee4": 6917,
      "ff3a": 6918,
      "4383": 6919,
      "2d46": 6920,
      "3beb": 6921,
      "6d2a": 6922,
      "972a": 6923,
      "2be1": 6924,
      "6a56": 6925,
      "6757": 6926,
      "0439": 6927,
      "4d30": 6928,
      "5b9c": 6929,
      "0232": 6930,
      "6277": 6931,
      "af02": 6932,
      "7668": 6933,
      "0453": 6934,
      "1401": 6935,
      "1020": 6936,
      "8fff": 6937,
      "0119": 6938,
      "7648": 6939,
      "c158": 6940,
      "8e02": 6941,
      "4746": 6942,
      "5656": 6943,
      "2ed3": 6944,
      "a101": 6945,
      "eb17": 6946,
      "4f54": 6947,
      "434f": 6948,
      "d97d": 6949,
      "8f74": 6950,
      "4841": 6951,
      "3c47": 6952,
      "475a": 6953,
      "80cf": 6954,
      "c802": 6955,
      "ce43": 6956,
      "8009": 6957,
      "0244": 6958,
      "fd2e": 6959,
      "c116": 6960,
      "af84": 6961,
      "c123": 6962,
      "7f7f": 6963,
      "332d": 6964,
      "1060": 6965,
      "4971": 6966,
      "1065": 6967,
      "e2e0": 6968,
      "3079": 6969,
      "c129": 6970,
      "fff2": 6971,
      "fc2e": 6972,
      "d143": 6973,
      "6d3b": 6974,
      "7783": 6975,
      "a122": 6976,
      "d602": 6977,
      "c370": 6978,
      "4509": 6979,
      "db49": 6980,
      "be5a": 6981,
      "fced": 6982,
      "6467": 6983,
      "b2f1": 6984,
      "2a71": 6985,
      "e1c1": 6986,
      "10dd": 6987,
      "a7a1": 6988,
      "f9f3": 6989,
      "a019": 6990,
      "e070": 6991,
      "5180": 6992,
      "3734": 6993,
      "b4ae": 6994,
      "2c57": 6995,
      "5667": 6996,
      "fd6d": 6997,
      "0c9d": 6998,
      "36a0": 6999,
      "bbe9": 7000,
      "7764": 7001,
      "044d": 7002,
      "6c3a": 7003,
      "652f": 7004,
      "f23d": 7005,
      "4966": 7006,
      "f034": 7007,
      "1f90": 7008,
      "6403": 7009,
      "bf5a": 7010,
      "2a2e": 7011,
      "3e31": 7012,
      "069a": 7013,
      "ceff": 7014,
      "f9ea": 7015,
      "db70": 7016,
      "f06c": 7017,
      "b852": 7018,
      "af14": 7019,
      "35f7": 7020,
      "732f": 7021,
      "e8d8": 7022,
      "0242": 7023,
      "c702": 7024,
      "626a": 7025,
      "a390": 7026,
      "fde5": 7027,
      "be02": 7028,
      "041e": 7029,
      "e0f2": 7030,
      "2e5b": 7031,
      "fce5": 7032,
      "b018": 7033,
      "0429": 7034,
      "a13a": 7035,
      "40e9": 7036,
      "666c": 7037,
      "ee02": 7038,
      "5988": 7039,
      "9901": 7040,
      "045e": 7041,
      "0196": 7042,
      "7d47": 7043,
      "9b70": 7044,
      "1e09": 7045,
      "09cc": 7046,
      "5103": 7047,
      "e3f9": 7048,
      "6c31": 7049,
      "9480": 7050,
      "4970": 7051,
      "14e9": 7052,
      "f8ff": 7053,
      "5038": 7054,
      "a902": 7055,
      "7c7d": 7056,
      "86bb": 7057,
      "2bea": 7058,
      "792f": 7059,
      "7258": 7060,
      "9322": 7061,
      "2101": 7062,
      "cf1f": 7063,
      "0432": 7064,
      "80d0": 7065,
      "0647": 7066,
      "76e1": 7067,
      "af1c": 7068,
      "4a13": 7069,
      "0a10": 7070,
      "2042": 7071,
      "9377": 7072,
      "603d": 7073,
      "2f4a": 7074,
      "d783": 7075,
      "6b74": 7076,
      "0893": 7077,
      "f102": 7078,
      "377e": 7079,
      "a480": 7080,
      "6dcc": 7081,
      "0c55": 7082,
      "5561": 7083,
      "4aa0": 7084,
      "f202": 7085,
      "d202": 7086,
      "e8e3": 7087,
      "4e88": 7088,
      "5855": 7089,
      "f935": 7090,
      "015a": 7091,
      "4170": 7092,
      "e3e9": 7093,
      "7768": 7094,
      "6a53": 7095,
      "6677": 7096,
      "beda": 7097,
      "d159": 7098,
      "7b87": 7099,
      "e4ff": 7100,
      "4c0d": 7101,
      "5e80": 7102,
      "6825": 7103,
      "0472": 7104,
      "6df1": 7105,
      "c1b5": 7106,
      "6a6b": 7107,
      "0489": 7108,
      "7674": 7109,
      "3008": 7110,
      "554d": 7111,
      "b3e9": 7112,
      "fc32": 7113,
      "d7fe": 7114,
      "029a": 7115,
      "7ae9": 7116,
      "b8b5": 7117,
      "6441": 7118,
      "93ff": 7119,
      "0224": 7120,
      "8c80": 7121,
      "1872": 7122,
      "3541": 7123,
      "0485": 7124,
      "a231": 7125,
      "6c6d": 7126,
      "c133": 7127,
      "7a02": 7128,
      "4e09": 7129,
      "0284": 7130,
      "507d": 7131,
      "f902": 7132,
      "a180": 7133,
      "1b70": 7134,
      "b380": 7135,
      "7cb3": 7136,
      "5959": 7137,
      "6859": 7138,
      "b949": 7139,
      "d3a1": 7140,
      "5426": 7141,
      "585d": 7142,
      "5337": 7143,
      "a08e": 7144,
      "124c": 7145,
      "6f71": 7146,
      "e3ff": 7147,
      "494d": 7148,
      "2904": 7149,
      "7053": 7150,
      "1501": 7151,
      "4a09": 7152,
      "374c": 7153,
      "fca6": 7154,
      "c201": 7155,
      "9380": 7156,
      "69ad": 7157,
      "7799": 7158,
      "9b02": 7159,
      "bbeb": 7160,
      "c117": 7161,
      "7566": 7162,
      "744a": 7163,
      "d948": 7164,
      "5161": 7165,
      "5271": 7166,
      "0491": 7167,
      "6079": 7168,
      "386b": 7169,
      "37c3": 7170,
      "cb02": 7171,
      "6851": 7172,
      "585a": 7173,
      "6d3f": 7174,
      "0cff": 7175,
      "ab80": 7176,
      "5cb6": 7177,
      "3188": 7178,
      "9ee5": 7179,
      "ce02": 7180,
      "4848": 7181,
      "ed90": 7182,
      "6367": 7183,
      "6de6": 7184,
      "152c": 7185,
      "6ee9": 7186,
      "247c": 7187,
      "6633": 7188,
      "c302": 7189,
      "2c32": 7190,
      "9d80": 7191,
      "cf02": 7192,
      "4301": 7193,
      "2297": 7194,
      "5bbd": 7195,
      "3ad7": 7196,
      "47d9": 7197,
      "e502": 7198,
      "7d15": 7199,
      "4980": 7200,
      "f279": 7201,
      "ca68": 7202,
      "706a": 7203,
      "4464": 7204,
      "0288": 7205,
      "60fd": 7206,
      "7f02": 7207,
      "6f3d": 7208,
      "046f": 7209,
      "4b64": 7210,
      "0471": 7211,
      "c1c0": 7212,
      "78ed": 7213,
      "5bfe": 7214,
      "c257": 7215,
      "95be": 7216,
      "6705": 7217,
      "7522": 7218,
      "bff6": 7219,
      "5a75": 7220,
      "59f5": 7221,
      "3db9": 7222,
      "53a1": 7223,
      "3283": 7224,
      "646e": 7225,
      "7720": 7226,
      "9911": 7227,
      "6856": 7228,
      "3023": 7229,
      "09c5": 7230,
      "4ab1": 7231,
      "ddd4": 7232,
      "7462": 7233,
      "6554": 7234,
      "adb0": 7235,
      "6943": 7236,
      "8366": 7237,
      "7eb3": 7238,
      "2e25": 7239,
      "dc02": 7240,
      "18e2": 7241,
      "5b82": 7242,
      "3843": 7243,
      "0a5e": 7244,
      "7a16": 7245,
      "6ed4": 7246,
      "169c": 7247,
      "f0ec": 7248,
      "7ca2": 7249,
      "6d40": 7250,
      "6d2c": 7251,
      "9783": 7252,
      "4090": 7253,
      "0218": 7254,
      "172a": 7255,
      "02b4": 7256,
      "a089": 7257,
      "7032": 7258,
      "ad65": 7259,
      "0881": 7260,
      "18ea": 7261,
      "5409": 7262,
      "727a": 7263,
      "ca63": 7264,
      "ffd4": 7265,
      "4bd8": 7266,
      "9ad4": 7267,
      "9987": 7268,
      "c969": 7269,
      "3671": 7270,
      "27ca": 7271,
      "bf02": 7272,
      "0221": 7273,
      "b4d8": 7274,
      "2e39": 7275,
      "4480": 7276,
      "3050": 7277,
      "a088": 7278,
      "470f": 7279,
      "9d01": 7280,
      "e5ba": 7281,
      "43a0": 7282,
      "7563": 7283,
      "af80": 7284,
      "758f": 7285,
      "bfb9": 7286,
      "046a": 7287,
      "02a2": 7288,
      "7765": 7289,
      "0c01": 7290,
      "6dca": 7291,
      "ffeb": 7292,
      "7351": 7293,
      "2ca8": 7294,
      "27c2": 7295,
      "e501": 7296,
      "1f2b": 7297,
      "6dc1": 7298,
      "0431": 7299,
      "817a": 7300,
      "456b": 7301,
      "376e": 7302,
      "01dc": 7303,
      "6144": 7304,
      "662e": 7305,
      "688e": 7306,
      "6419": 7307,
      "2edb": 7308,
      "0707": 7309,
      "41e8": 7310,
      "444c": 7311,
      "b837": 7312,
      "cb70": 7313,
      "6cc7": 7314,
      "f7a1": 7315,
      "77b7": 7316,
      "024d": 7317,
      "4452": 7318,
      "f9fd": 7319,
      "4b37": 7320,
      "7f77": 7321,
      "6d3e": 7322,
      "f9a4": 7323,
      "3501": 7324,
      "c001": 7325,
      "4680": 7326,
      "7458": 7327,
      "63d3": 7328,
      "0541": 7329,
      "6552": 7330,
      "b590": 7331,
      "ecae": 7332,
      "34d8": 7333,
      "0459": 7334,
      "6147": 7335,
      "356b": 7336,
      "c11e": 7337,
      "8c1f": 7338,
      "ed0e": 7339,
      "62ad": 7340,
      "5901": 7341,
      "7832": 7342,
      "0465": 7343,
      "11f5": 7344,
      "42a1": 7345,
      "a940": 7346,
      "79e0": 7347,
      "4e9b": 7348,
      "8eec": 7349,
      "9a80": 7350,
      "e901": 7351,
      "b040": 7352,
      "6301": 7353,
      "098e": 7354,
      "046c": 7355,
      "ffdb": 7356,
      "487d": 7357,
      "ba4b": 7358,
      "7451": 7359,
      "e8a1": 7360,
      "49ed": 7361,
      "5be9": 7362,
      "0333": 7363,
      "7035": 7364,
      "b4a6": 7365,
      "f33d": 7366,
      "049a": 7367,
      "a0b3": 7368,
      "404a": 7369,
      "f2d3": 7370,
      "4532": 7371,
      "5844": 7372,
      "d390": 7373,
      "011c": 7374,
      "046b": 7375,
      "6638": 7376,
      "3820": 7377,
      "5bd8": 7378,
      "01fe": 7379,
      "4e42": 7380,
      "a8b4": 7381,
      "4736": 7382,
      "b51b": 7383,
      "7769": 7384,
      "20ad": 7385,
      "0d33": 7386,
      "7833": 7387,
      "a580": 7388,
      "a280": 7389,
      "59ef": 7390,
      "f0b4": 7391,
      "3461": 7392,
      "f2d2": 7393,
      "65ff": 7394,
      "4748": 7395,
      "6453": 7396,
      "19d5": 7397,
      "2e52": 7398,
      "988e": 7399,
      "fe4e": 7400,
      "5159": 7401,
      "6744": 7402,
      "6d16": 7403,
      "f002": 7404,
      "5158": 7405,
      "0497": 7406,
      "d77c": 7407,
      "040a": 7408,
      "0438": 7409,
      "b361": 7410,
      "474a": 7411,
      "f92c": 7412,
      "8390": 7413,
      "5664": 7414,
      "53af": 7415,
      "047a": 7416,
      "2840": 7417,
      "630c": 7418,
      "32e2": 7419,
      "40c9": 7420,
      "6df7": 7421,
      "78ac": 7422,
      "a283": 7423,
      "5876": 7424,
      "574c": 7425,
      "af05": 7426,
      "d15a": 7427,
      "0478": 7428,
      "e1e1": 7429,
      "a094": 7430,
      "513b": 7431,
      "6cfd": 7432,
      "b393": 7433,
      "49f8": 7434,
      "f1fd": 7435,
      "4590": 7436,
      "5467": 7437,
      "aeb9": 7438,
      "2033": 7439,
      "f795": 7440,
      "6418": 7441,
      "04b5": 7442,
      "048e": 7443,
      "4470": 7444,
      "397a": 7445,
      "4832": 7446,
      "9077": 7447,
      "f06d": 7448,
      "793d": 7449,
      "5b13": 7450,
      "5d4f": 7451,
      "5bec": 7452,
      "19e1": 7453,
      "340d": 7454,
      "ac57": 7455,
      "6103": 7456,
      "4380": 7457,
      "ad80": 7458,
      "1262": 7459,
      "3749": 7460,
      "c141": 7461,
      "200d": 7462,
      "9789": 7463,
      "a4c8": 7464,
      "d04a": 7465,
      "3d49": 7466,
      "59f7": 7467,
      "6569": 7468,
      "32b1": 7469,
      "6334": 7470,
      "6b59": 7471,
      "3063": 7472,
      "b123": 7473,
      "7376": 7474,
      "3094": 7475,
      "011b": 7476,
      "0417": 7477,
      "c1bd": 7478,
      "d959": 7479,
      "9c80": 7480,
      "fc90": 7481,
      "7352": 7482,
      "4359": 7483,
      "fc57": 7484,
      "4363": 7485,
      "6625": 7486,
      "1e43": 7487,
      "6978": 7488,
      "7e79": 7489,
      "e0ea": 7490,
      "43a6": 7491,
      "d4c8": 7492,
      "6ddc": 7493,
      "a370": 7494,
      "3458": 7495,
      "4334": 7496,
      "6df9": 7497,
      "5a7a": 7498,
      "ff37": 7499,
      "dd6e": 7500,
      "e184": 7501,
      "0149": 7502,
      "43ae": 7503,
      "048b": 7504,
      "8d80": 7505,
      "6559": 7506,
      "0499": 7507,
      "3565": 7508,
      "67be": 7509,
      "3348": 7510,
      "3189": 7511,
      "0903": 7512,
      "5051": 7513,
      "4273": 7514,
      "d790": 7515,
      "a604": 7516,
      "bd7c": 7517,
      "2e75": 7518,
      "ee7e": 7519,
      "3f1b": 7520,
      "0243": 7521,
      "7dc6": 7522,
      "04a5": 7523,
      "b101": 7524,
      "0395": 7525,
      "0286": 7526,
      "5246": 7527,
      "fae0": 7528,
      "f3f9": 7529,
      "3c85": 7530,
      "7076": 7531,
      "3e5a": 7532,
      "d742": 7533,
      "6df8": 7534,
      "0469": 7535,
      "042f": 7536,
      "55e8": 7537,
      "b0a3": 7538,
      "4d90": 7539,
      "6dea": 7540,
      "e9fd": 7541,
      "4267": 7542,
      "a65a": 7543,
      "3a34": 7544,
      "e9fc": 7545,
      "3670": 7546,
      "3cff": 7547,
      "bfd3": 7548,
      "4b74": 7549,
      "f825": 7550,
      "7801": 7551,
      "1b6f": 7552,
      "6843": 7553,
      "2748": 7554,
      "5a07": 7555,
      "ffd7": 7556,
      "c71c": 7557,
      "5336": 7558,
      "41f8": 7559,
      "d1da": 7560,
      "0494": 7561,
      "98ff": 7562,
      "b360": 7563,
      "2465": 7564,
      "047c": 7565,
      "c402": 7566,
      "5753": 7567,
      "6ddd": 7568,
      "99b3": 7569,
      "bdb9": 7570,
      "5b0a": 7571,
      "ff53": 7572,
      "8efc": 7573,
      "fd6c": 7574,
      "6dfa": 7575,
      "6d28": 7576,
      "7368": 7577,
      "772f": 7578,
      "043f": 7579,
      "f783": 7580,
      "e3e1": 7581,
      "8e98": 7582,
      "9e8c": 7583,
      "fae1": 7584,
      "5953": 7585,
      "3945": 7586,
      "22ec": 7587,
      "c299": 7588,
      "4b57": 7589,
      "545a": 7590,
      "d8ec": 7591,
      "7864": 7592,
      "2379": 7593,
      "5952": 7594,
      "e271": 7595,
      "12ef": 7596,
      "ff47": 7597,
      "50b4": 7598,
      "6a71": 7599,
      "2cff": 7600,
      "beff": 7601,
      "ecec": 7602,
      "6dd9": 7603,
      "0492": 7604,
      "6dc2": 7605,
      "58d4": 7606,
      "d690": 7607,
      "6f7e": 7608,
      "014b": 7609,
      "2f61": 7610,
      "8c9d": 7611,
      "6454": 7612,
      "593b": 7613,
      "3a01": 7614,
      "b8bd": 7615,
      "5011": 7616,
      "e5e5": 7617,
      "c0b4": 7618,
      "2d50": 7619,
      "3028": 7620,
      "8266": 7621,
      "0246": 7622,
      "040c": 7623,
      "767a": 7624,
      "507c": 7625,
      "1807": 7626,
      "58dd": 7627,
      "aa4e": 7628,
      "e208": 7629,
      "8e09": 7630,
      "234b": 7631,
      "8367": 7632,
      "eaad": 7633,
      "1fff": 7634,
      "8523": 7635,
      "783d": 7636,
      "97cf": 7637,
      "61ec": 7638,
      "5845": 7639,
      "0a18": 7640,
      "46d9": 7641,
      "5343": 7642,
      "2a7a": 7643,
      "5867": 7644,
      "2925": 7645,
      "ac0b": 7646,
      "97fc": 7647,
      "6d04": 7648,
      "0c83": 7649,
      "2e4a": 7650,
      "2940": 7651,
      "e7be": 7652,
      "1425": 7653,
      "664b": 7654,
      "324f": 7655,
      "5a58": 7656,
      "f243": 7657,
      "baeb": 7658,
      "cf50": 7659,
      "fc2f": 7660,
      "50ad": 7661,
      "5357": 7662,
      "6dd3": 7663,
      "3854": 7664,
      "cd2e": 7665,
      "ec46": 7666,
      "d490": 7667,
      "6556": 7668,
      "6553": 7669,
      "12f9": 7670,
      "3c5e": 7671,
      "4f6e": 7672,
      "0a66": 7673,
      "4241": 7674,
      "6dd5": 7675,
      "c132": 7676,
      "ef02": 7677,
      "a4af": 7678,
      "db83": 7679,
      "46d2": 7680,
      "fc14": 7681,
      "8e0a": 7682,
      "fff5": 7683,
      "d2ae": 7684,
      "0198": 7685,
      "22f0": 7686,
      "c502": 7687,
      "766c": 7688,
      "79ad": 7689,
      "adb8": 7690,
      "d8c8": 7691,
      "cd02": 7692,
      "d7d3": 7693,
      "dad9": 7694,
      "2a93": 7695,
      "7033": 7696,
      "3206": 7697,
      "bb02": 7698,
      "da63": 7699,
      "cc71": 7700,
      "4855": 7701,
      "043b": 7702,
      "6de2": 7703,
      "fcfe": 7704,
      "f0bd": 7705,
      "67a0": 7706,
      "11f6": 7707,
      "b6b9": 7708,
      "11fa": 7709,
      "3548": 7710,
      "75e9": 7711,
      "08e3": 7712,
      "5290": 7713,
      "7cd6": 7714,
      "6201": 7715,
      "7403": 7716,
      "f3ac": 7717,
      "5bd9": 7718,
      "01d2": 7719,
      "4290": 7720,
      "33de": 7721,
      "9090": 7722,
      "e1c8": 7723,
      "c350": 7724,
      "74e9": 7725,
      "6de1": 7726,
      "3755": 7727,
      "670d": 7728,
      "5bfd": 7729,
      "762f": 7730,
      "585c": 7731,
      "6dc0": 7732,
      "4c53": 7733,
      "4b1b": 7734,
      "6bdd": 7735,
      "a86c": 7736,
      "7ea1": 7737,
      "c04c": 7738,
      "b823": 7739,
      "3301": 7740,
      "d451": 7741,
      "3952": 7742,
      "1fbf": 7743,
      "c12e": 7744,
      "0487": 7745,
      "2eec": 7746,
      "4969": 7747,
      "1790": 7748,
      "0474": 7749,
      "351f": 7750,
      "f1a4": 7751,
      "4353": 7752,
      "6df3": 7753,
      "1574": 7754,
      "f190": 7755,
      "b602": 7756,
      "ef4e": 7757,
      "0118": 7758,
      "6e44": 7759,
      "01bc": 7760,
      "0422": 7761,
      "3678": 7762,
      "6458": 7763,
      "0166": 7764,
      "0bc0": 7765,
      "9009": 7766,
      "6cbf": 7767,
      "9b80": 7768,
      "2f36": 7769,
      "022c": 7770,
      "5210": 7771,
      "8e74": 7772,
      "384f": 7773,
      "7439": 7774,
      "bd97": 7775,
      "5aaf": 7776,
      "528b": 7777,
      "2051": 7778,
      "32de": 7779,
      "d879": 7780,
      "01ea": 7781,
      "6f2f": 7782,
      "6dcd": 7783,
      "6de4": 7784,
      "434e": 7785,
      "ac90": 7786,
      "414c": 7787,
      "11ff": 7788,
      "ed01": 7789,
      "fc2b": 7790,
      "686a": 7791,
      "0c2d": 7792,
      "ada9": 7793,
      "310a": 7794,
      "c743": 7795,
      "cd37": 7796,
      "9680": 7797,
      "042a": 7798,
      "9389": 7799,
      "61ff": 7800,
      "a64a": 7801,
      "3c79": 7802,
      "eeef": 7803,
      "6233": 7804,
      "767e": 7805,
      "62ac": 7806,
      "da50": 7807,
      "9981": 7808,
      "af9e": 7809,
      "4b83": 7810,
      "7154": 7811,
      "31dd": 7812,
      "2aff": 7813,
      "69d1": 7814,
      "e297": 7815,
      "7b04": 7816,
      "7ef9": 7817,
      "bbfb": 7818,
      "b7ff": 7819,
      "4a9a": 7820,
      "5a72": 7821,
      "84ae": 7822,
      "10bd": 7823,
      "6475": 7824,
      "d450": 7825,
      "6dee": 7826,
      "6ef0": 7827,
      "0747": 7828,
      "e8de": 7829,
      "25ec": 7830,
      "bf15": 7831,
      "be39": 7832,
      "51c4": 7833,
      "1c2f": 7834,
      "ac10": 7835,
      "04a1": 7836,
      "7d22": 7837,
      "64c6": 7838,
      "d951": 7839,
      "0285": 7840,
      "4a80": 7841,
      "daaf": 7842,
      "4e30": 7843,
      "3122": 7844,
      "4825": 7845,
      "6236": 7846,
      "0476": 7847,
      "5980": 7848,
      "c120": 7849,
      "321a": 7850,
      "584e": 7851,
      "4931": 7852,
      "d272": 7853,
      "2b72": 7854,
      "b0af": 7855,
      "d6d9": 7856,
      "d3af": 7857,
      "f0e5": 7858,
      "ff28": 7859,
      "11e3": 7860,
      "634c": 7861,
      "e5a6": 7862,
      "f3bd": 7863,
      "b7b1": 7864,
      "ff27": 7865,
      "2a83": 7866,
      "89e3": 7867,
      "5c80": 7868,
      "3016": 7869,
      "0467": 7870,
      "6940": 7871,
      "2547": 7872,
      "a980": 7873,
      "4d08": 7874,
      "6dd2": 7875,
      "3175": 7876,
      "685a": 7877,
      "7b86": 7878,
      "b512": 7879,
      "93a2": 7880,
      "6842": 7881,
      "c373": 7882,
      "900b": 7883,
      "cc9d": 7884,
      "6dc3": 7885,
      "0289": 7886,
      "5306": 7887,
      "3222": 7888,
      "2a5b": 7889,
      "f23c": 7890,
      "88e2": 7891,
      "b941": 7892,
      "028a": 7893,
      "c901": 7894,
      "fd2f": 7895,
      "047d": 7896,
      "6d27": 7897,
      "fcaf": 7898,
      "7eb8": 7899,
      "4ad9": 7900,
      "1ba2": 7901,
      "4c05": 7902,
      "366d": 7903,
      "5f80": 7904,
      "684c": 7905,
      "d659": 7906,
      "69a5": 7907,
      "6d1a": 7908,
      "5239": 7909,
      "9dff": 7910,
      "5bd4": 7911,
      "7443": 7912,
      "e23d": 7913,
      "5151": 7914,
      "32ec": 7915,
      "672f": 7916,
      "0414": 7917,
      "28bf": 7918,
      "9909": 7919,
      "50f0": 7920,
      "d702": 7921,
      "5368": 7922,
      "03e6": 7923,
      "114c": 7924,
      "9522": 7925,
      "6831": 7926,
      "fe01": 7927,
      "4041": 7928,
      "6636": 7929,
      "f1ff": 7930,
      "5761": 7931,
      "2a01": 7932,
      "5430": 7933,
      "0226": 7934,
      "0e07": 7935,
      "7938": 7936,
      "8972": 7937,
      "c11a": 7938,
      "5942": 7939,
      "22eb": 7940,
      "a2f0": 7941,
      "a614": 7942,
      "1eb4": 7943,
      "6166": 7944,
      "22fb": 7945,
      "28f5": 7946,
      "5b22": 7947,
      "03fb": 7948,
      "b3a2": 7949,
      "3f20": 7950,
      "0bb8": 7951,
      "a449": 7952,
      "ecbe": 7953,
      "5968": 7954,
      "32fe": 7955,
      "5a04": 7956,
      "04ff": 7957,
      "9902": 7958,
      "2533": 7959,
      "4d09": 7960,
      "ff7d": 7961,
      "7149": 7962,
      "9580": 7963,
      "c8c9": 7964,
      "a41e": 7965,
      "2352": 7966,
      "5e45": 7967,
      "adc6": 7968,
      "bd8e": 7969,
      "e990": 7970,
      "ff5f": 7971,
      "52f2": 7972,
      "b950": 7973,
      "4e4a": 7974,
      "d419": 7975,
      "5b7d": 7976,
      "77d4": 7977,
      "d402": 7978,
      "5851": 7979,
      "794b": 7980,
      "e102": 7981,
      "4657": 7982,
      "5cb7": 7983,
      "042d": 7984,
      "ffed": 7985,
      "4723": 7986,
      "acb9": 7987,
      "5a51": 7988,
      "5380": 7989,
      "4e53": 7990,
      "42af": 7991,
      "3976": 7992,
      "7db2": 7993,
      "b475": 7994,
      "59f6": 7995,
      "898e": 7996,
      "6e41": 7997,
      "4c69": 7998,
      "566f": 7999,
      "b050": 8000,
      "74d6": 8001,
      "0173": 8002,
      "6580": 8003,
      "7b5d": 8004,
      "6820": 8005,
      "080c": 8006,
      "6d09": 8007,
      "4210": 8008,
      "6abd": 8009,
      "61a5": 8010,
      "6e35": 8011,
      "8e08": 8012,
      "042e": 8013,
      "eb8e": 8014,
      "eed4": 8015,
      "042b": 8016,
      "6d0a": 8017,
      "4634": 8018,
      "6dc9": 8019,
      "e90c": 8020,
      "97df": 8021,
      "0977": 8022,
      "de02": 8023,
      "51f8": 8024,
      "999e": 8025,
      "e2ff": 8026,
      "58e1": 8027,
      "ecd7": 8028,
      "305a": 8029,
      "fff1": 8030,
      "e92c": 8031,
      "a301": 8032,
      "1d01": 8033,
      "1e41": 8034,
      "e9a4": 8035,
      "a246": 8036,
      "04a4": 8037,
      "e025": 8038,
      "3103": 8039,
      "6dd8": 8040,
      "454e": 8041,
      "0962": 8042,
      "6b54": 8043,
      "3763": 8044,
      "5938": 8045,
      "1e65": 8046,
      "d84a": 8047,
      "a6b9": 8048,
      "4901": 8049,
      "ca91": 8050,
      "6535": 8051,
      "2a60": 8052,
      "edb2": 8053,
      "19cc": 8054,
      "9089": 8055,
      "fc3b": 8056,
      "d4d0": 8057,
      "c733": 8058,
      "f0fa": 8059,
      "7049": 8060,
      "1eec": 8061,
      "dd27": 8062,
      "4453": 8063,
      "6b68": 8064,
      "358f": 8065,
      "c8a4": 8066,
      "047f": 8067,
      "236a": 8068,
      "186d": 8069,
      "e9f2": 8070,
      "2a31": 8071,
      "b7c3": 8072,
      "3556": 8073,
      "0421": 8074,
      "7d23": 8075,
      "c128": 8076,
      "e9e9": 8077,
      "8c90": 8078,
      "104d": 8079,
      "ddd8": 8080,
      "5b8b": 8081,
      "3b7a": 8082,
      "6d0e": 8083,
      "4471": 8084,
      "6de0": 8085,
      "616f": 8086,
      "5024": 8087,
      "5b92": 8088,
      "69ac": 8089,
      "7708": 8090,
      "24af": 8091,
      "0a20": 8092,
      "d648": 8093,
      "043a": 8094,
      "3cc6": 8095,
      "c427": 8096,
      "1290": 8097,
      "a133": 8098,
      "0233": 8099,
      "105a": 8100,
      "4f4a": 8101,
      "4a90": 8102,
      "0495": 8103,
      "1490": 8104,
      "cd4d": 8105,
      "025b": 8106,
      "a49e": 8107,
      "0f3c": 8108,
      "5101": 8109,
      "2401": 8110,
      "47ff": 8111,
      "1e1f": 8112,
      "d749": 8113,
      "6d17": 8114,
      "5371": 8115,
      "6dd4": 8116,
      "072b": 8117,
      "3ffe": 8118,
      "da49": 8119,
      "4225": 8120,
      "049e": 8121,
      "4e01": 8122,
      "aeb8": 8123,
      "6445": 8124,
      "d502": 8125,
      "e9e3": 8126,
      "fde7": 8127,
      "c11b": 8128,
      "e1d1": 8129,
      "4605": 8130,
      "0158": 8131,
      "0150": 8132,
      "64ff": 8133,
      "5378": 8134,
      "71f3": 8135,
      "4e52": 8136,
      "207a": 8137,
      "90e6": 8138,
      "e8df": 8139,
      "7a66": 8140,
      "028b": 8141,
      "65ab": 8142,
      "08c3": 8143,
      "2b1a": 8144,
      "15b5": 8145,
      "5672": 8146,
      "40f9": 8147,
      "3004": 8148,
      "e4a2": 8149,
      "6dc5": 8150,
      "0225": 8151,
      "b4b6": 8152,
      "584c": 8153,
      "041a": 8154,
      "9180": 8155,
      "5b83": 8156,
      "28d1": 8157,
      "021c": 8158,
      "a4b9": 8159,
      "0811": 8160,
      "1e66": 8161,
      "3b9e": 8162,
      "87fc": 8163,
      "564b": 8164,
      "5d80": 8165,
      "048f": 8166,
      "3870": 8167,
      "7661": 8168,
      "02ac": 8169,
      "adb6": 8170,
      "32c7": 8171,
      "6670": 8172,
      "e9e5": 8173,
      "e8e4": 8174,
      "e371": 8175,
      "295a": 8176,
      "1b76": 8177,
      "0626": 8178,
      "6140": 8179,
      "a448": 8180,
      "2be0": 8181,
      "0227": 8182,
      "4a74": 8183,
      "0564": 8184,
      "5dff": 8185,
      "7d5c": 8186,
      "6668": 8187,
      "5069": 8188,
      "a825": 8189,
      "30b2": 8190,
      "6f01": 8191,
      "572a": 8192,
      "660a": 8193,
      "6452": 8194,
      "fde8": 8195,
      "4fff": 8196,
      "eb16": 8197,
      "8474": 8198,
      "9280": 8199,
      "ff34": 8200,
      "a4c1": 8201,
      "6c2e": 8202,
      "2753": 8203,
      "abe9": 8204,
      "aea1": 8205,
      "fada": 8206,
      "f9e5": 8207,
      "aeb1": 8208,
      "406d": 8209,
      "fab4": 8210,
      "03d6": 8211,
      "48ed": 8212,
      "049b": 8213,
      "535a": 8214,
      "998f": 8215,
      "366a": 8216,
      "1965": 8217,
      "5c72": 8218,
      "4754": 8219,
      "5c75": 8220,
      "b2e9": 8221,
      "6d13": 8222,
      "f82d": 8223,
      "64b5": 8224,
      "60b5": 8225,
      "6c58": 8226,
      "424e": 8227,
      "348f": 8228,
      "59cd": 8229,
      "58ec": 8230,
      "6655": 8231,
      "7c47": 8232,
      "2027": 8233,
      "6d05": 8234,
      "2d4e": 8235,
      "5e2a": 8236,
      "5775": 8237,
      "77ae": 8238,
      "4eda": 8239,
      "eca2": 8240,
      "5680": 8241,
      "6de8": 8242,
      "f5bf": 8243,
      "0231": 8244,
      "3869": 8245,
      "5b9b": 8246,
      "1642": 8247,
      "3578": 8248,
      "048d": 8249,
      "4448": 8250,
      "0245": 8251,
      "d87d": 8252,
      "5bd2": 8253,
      "ba70": 8254,
      "f03d": 8255,
      "c1a4": 8256,
      "2c5b": 8257,
      "da7a": 8258,
      "3644": 8259,
      "0427": 8260,
      "8ee1": 8261,
      "ff14": 8262,
      "3293": 8263,
      "23e9": 8264,
      "94ff": 8265,
      "a61c": 8266,
      "6df2": 8267,
      "fef0": 8268,
      "4c30": 8269,
      "78e9": 8270,
      "bfa9": 8271,
      "f3e9": 8272,
      "fe79": 8273,
      "6f4f": 8274,
      "5b2d": 8275,
      "3292": 8276,
      "10ba": 8277,
      "2864": 8278,
      "e12e": 8279,
      "4258": 8280,
      "a380": 8281,
      "4bd9": 8282,
      "7771": 8283,
      "ffad": 8284,
      "4f6d": 8285,
      "c9f8": 8286,
      "f29e": 8287,
      "616b": 8288,
      "66a1": 8289,
      "7a52": 8290,
      "eab4": 8291,
      "3d01": 8292,
      "01dd": 8293,
      "7779": 8294,
      "0e01": 8295,
      "5167": 8296,
      "6130": 8297,
      "4e43": 8298,
      "3768": 8299,
      "01d5": 8300,
      "013a": 8301,
      "6333": 8302,
      "4e5a": 8303,
      "3276": 8304,
      "2a69": 8305,
      "269d": 8306,
      "2ace": 8307,
      "7466": 8308,
      "4310": 8309,
      "f9ec": 8310,
      "ad7c": 8311,
      "0966": 8312,
      "c95c": 8313,
      "4e79": 8314,
      "536a": 8315,
      "4401": 8316,
      "3747": 8317,
      "3081": 8318,
      "1201": 8319,
      "5552": 8320,
      "3c42": 8321,
      "b959": 8322,
      "2ec3": 8323,
      "ff8f": 8324,
      "6383": 8325,
      "6df4": 8326,
      "7222": 8327,
      "ffb4": 8328,
      "624d": 8329,
      "f025": 8330,
      "5e22": 8331,
      "c7ff": 8332,
      "544f": 8333,
      "25ed": 8334,
      "7820": 8335,
      "0410": 8336,
      "4f4f": 8337,
      "6747": 8338,
      "61ce": 8339,
      "4ac1": 8340,
      "5ab6": 8341,
      "cbff": 8342,
      "4742": 8343,
      "f630": 8344,
      "7a40": 8345,
      "5e33": 8346,
      "6d14": 8347,
      "8ef5": 8348,
      "4a76": 8349,
      "358e": 8350,
      "4c4c": 8351,
      "6d06": 8352,
      "b48e": 8353,
      "7749": 8354,
      "6dde": 8355,
      "7401": 8356,
      "554a": 8357,
      "7f67": 8358,
      "75a2": 8359,
      "9a67": 8360,
      "1e32": 8361,
      "32b5": 8362,
      "4f6c": 8363,
      "ddc0": 8364,
      "8383": 8365,
      "4101": 8366,
      "ff18": 8367,
      "15b4": 8368,
      "7345": 8369,
      "ddff": 8370,
      "2eb8": 8371,
      "2b61": 8372,
      "253e": 8373,
      "03d2": 8374,
      "d153": 8375,
      "ef7e": 8376,
      "0237": 8377,
      "6ea7": 8378,
      "2eff": 8379,
      "027c": 8380,
      "d640": 8381,
      "8097": 8382,
      "6679": 8383,
      "676d": 8384,
      "ff29": 8385,
      "5b9a": 8386,
      "5b58": 8387,
      "d75a": 8388,
      "3f02": 8389,
      "77a7": 8390,
      "66ff": 8391,
      "643e": 8392,
      "6246": 8393,
      "7ac9": 8394,
      "65b2": 8395,
      "b8a4": 8396,
      "6b56": 8397,
      "516b": 8398,
      "52aa": 8399,
      "4642": 8400,
      "686d": 8401,
      "4e66": 8402,
      "d423": 8403,
      "3a35": 8404,
      "a24e": 8405,
      "48d3": 8406,
      "fbfe": 8407,
      "fc98": 8408,
      "c3f3": 8409,
      "7679": 8410,
      "546b": 8411,
      "b542": 8412,
      "5079": 8413,
      "fcae": 8414,
      "717c": 8415,
      "a260": 8416,
      "5320": 8417,
      "9e3f": 8418,
      "a41f": 8419,
      "454b": 8420,
      "7925": 8421,
      "6271": 8422,
      "d8b4": 8423,
      "4b5a": 8424,
      "018d": 8425,
      "7ea0": 8426,
      "3a18": 8427,
      "f9b4": 8428,
      "4f6b": 8429,
      "ea16": 8430,
      "684b": 8431,
      "97ff": 8432,
      "2d4f": 8433,
      "02b9": 8434,
      "3210": 8435,
      "5452": 8436,
      "87e5": 8437,
      "0a17": 8438,
      "f9bd": 8439,
      "5baa": 8440,
      "5028": 8441,
      "8bff": 8442,
      "f03c": 8443,
      "4a9b": 8444,
      "5a45": 8445,
      "5862": 8446,
      "af4a": 8447,
      "6133": 8448,
      "2d41": 8449,
      "4e20": 8450,
      "1203": 8451,
      "ad57": 8452,
      "3574": 8453,
      "316d": 8454,
      "3225": 8455,
      "0c70": 8456,
      "5d01": 8457,
      "b840": 8458,
      "1c25": 8459,
      "6dd1": 8460,
      "324c": 8461,
      "5205": 8462,
      "7559": 8463,
      "f8c8": 8464,
      "fefb": 8465,
      "3022": 8466,
      "0475": 8467,
      "4376": 8468,
      "b783": 8469,
      "426c": 8470,
      "e53b": 8471,
      "4f47": 8472,
      "0b6e": 8473,
      "10e7": 8474,
      "524c": 8475,
      "2aeb": 8476,
      "8a67": 8477,
      "a1ad": 8478,
      "cdb7": 8479,
      "0368": 8480,
      "7eff": 8481,
      "6290": 8482,
      "6d11": 8483,
      "3859": 8484,
      "257c": 8485,
      "f006": 8486,
      "304f": 8487,
      "4833": 8488,
      "e287": 8489,
      "8f27": 8490,
      "91e6": 8491,
      "0acb": 8492,
      "d30b": 8493,
      "f3fe": 8494,
      "19dc": 8495,
      "2016": 8496,
      "83ef": 8497,
      "235b": 8498,
      "0f34": 8499,
      "71e1": 8500,
      "1824": 8501,
      "7146": 8502,
      "f16c": 8503,
      "049d": 8504,
      "f3b4": 8505,
      "014e": 8506,
      "6060": 8507,
      "a259": 8508,
      "5723": 8509,
      "47a3": 8510,
      "e6ff": 8511,
      "4915": 8512,
      "724c": 8513,
      "6237": 8514,
      "c301": 8515,
      "2951": 8516,
      "cc27": 8517,
      "6252": 8518,
      "6945": 8519,
      "980e": 8520,
      "6dc4": 8521,
      "6366": 8522,
      "5b33": 8523,
      "46d3": 8524,
      "4599": 8525,
      "2901": 8526,
      "746e": 8527,
      "4219": 8528,
      "92ff": 8529,
      "330d": 8530,
      "e062": 8531,
      "9799": 8532,
      "ecb6": 8533,
      "60f5": 8534,
      "67e9": 8535,
      "fb90": 8536,
      "4555": 8537,
      "a195": 8538,
      "1f70": 8539,
      "eeff": 8540,
      "e7c5": 8541,
      "b5af": 8542,
      "4c4a": 8543,
      "7677": 8544,
      "69ff": 8545,
      "8989": 8546,
      "743d": 8547,
      "57a3": 8548,
      "c043": 8549,
      "b4ec": 8550,
      "a58e": 8551,
      "50f9": 8552,
      "fad3": 8553,
      "6659": 8554,
      "1eb3": 8555,
      "2bf2": 8556,
      "e532": 8557,
      "b203": 8558,
      "7966": 8559,
      "0a36": 8560,
      "5190": 8561,
      "ffd6": 8562,
      "014d": 8563,
      "6f31": 8564,
      "0818": 8565,
      "126f": 8566,
      "0c3c": 8567,
      "022d": 8568,
      "6d24": 8569,
      "2a52": 8570,
      "e5fe": 8571,
      "6935": 8572,
      "01f4": 8573,
      "4601": 8574,
      "26da": 8575,
      "fdf6": 8576,
      "3d80": 8577,
      "dd09": 8578,
      "0129": 8579,
      "f33c": 8580,
      "7275": 8581,
      "fde6": 8582,
      "c118": 8583,
      "1f08": 8584,
      "ffee": 8585,
      "0122": 8586,
      "78ff": 8587,
      "97e5": 8588,
      "6901": 8589,
      "b9ff": 8590,
      "088e": 8591,
      "33c7": 8592,
      "1bc0": 8593,
      "2f90": 8594,
      "486c": 8595,
      "5115": 8596,
      "71ac": 8597,
      "028d": 8598,
      "2b7a": 8599,
      "e5fd": 8600,
      "03ee": 8601,
      "3208": 8602,
      "7dcf": 8603,
      "908e": 8604,
      "f6a1": 8605,
      "04d4": 8606,
      "a6ff": 8607,
      "e0b5": 8608,
      "ef45": 8609,
      "5001": 8610,
      "adfe": 8611,
      "3d16": 8612,
      "ffbe": 8613,
      "5bb5": 8614,
      "6b30": 8615,
      "d650": 8616,
      "3147": 8617,
      "6f4c": 8618,
      "4a10": 8619,
      "667e": 8620,
      "ac12": 8621,
      "414b": 8622,
      "302f": 8623,
      "e9ff": 8624,
      "e9ea": 8625,
      "a0fe": 8626,
      "1317": 8627,
      "8a8f": 8628,
      "d753": 8629,
      "6739": 8630,
      "e02c": 8631,
      "b6b0": 8632,
      "049c": 8633,
      "f9a5": 8634,
      "8535": 8635,
      "ff4a": 8636,
      "02ee": 8637,
      "0155": 8638,
      "4a82": 8639,
      "bbff": 8640,
      "b924": 8641,
      "1601": 8642,
      "e063": 8643,
      "0c38": 8644,
      "5c4d": 8645,
      "8a66": 8646,
      "8a21": 8647,
      "74ba": 8648,
      "596d": 8649,
      "0124": 8650,
      "8e2a": 8651,
      "1977": 8652,
      "d8b5": 8653,
      "62d2": 8654,
      "5072": 8655,
      "486e": 8656,
      "4b9a": 8657,
      "4f76": 8658,
      "5330": 8659,
      "40da": 8660,
      "6d0f": 8661,
      "a5d8": 8662,
      "624e": 8663,
      "ff7e": 8664,
      "51cd": 8665,
      "0a67": 8666,
      "d230": 8667,
      "a6b0": 8668,
      "01e8": 8669,
      "43b1": 8670,
      "e8e5": 8671,
      "ecfe": 8672,
      "de4a": 8673,
      "4b6d": 8674,
      "7c2b": 8675,
      "0310": 8676,
      "62d3": 8677,
      "8b01": 8678,
      "6dce": 8679,
      "b4b9": 8680,
      "514e": 8681,
      "e42b": 8682,
      "0850": 8683,
      "780a": 8684,
      "4450": 8685,
      "873a": 8686,
      "4e90": 8687,
      "d599": 8688,
      "694f": 8689,
      "0167": 8690,
      "6f7f": 8691,
      "fdb6": 8692,
      "9097": 8693,
      "e925": 8694,
      "5afa": 8695,
      "1b7f": 8696,
      "6542": 8697,
      "0f30": 8698,
      "e9b4": 8699,
      "0287": 8700,
      "b4b0": 8701,
      "5433": 8702,
      "5a59": 8703,
      "e23c": 8704,
      "6362": 8705,
      "3eda": 8706,
      "662f": 8707,
      "02e6": 8708,
      "5b32": 8709,
      "ae15": 8710,
      "ddc1": 8711,
      "19e3": 8712,
      "5878": 8713,
      "011a": 8714,
      "26c3": 8715,
      "3354": 8716,
      "79b5": 8717,
      "6def": 8718,
      "ceaa": 8719,
      "4c75": 8720,
      "ff79": 8721,
      "329a": 8722,
      "626d": 8723,
      "3661": 8724,
      "e8ad": 8725,
      "ad28": 8726,
      "b825": 8727,
      "bb90": 8728,
      "3568": 8729,
      "3558": 8730,
      "0d17": 8731,
      "a590": 8732,
      "ff4f": 8733,
      "d841": 8734,
      "3254": 8735,
      "4e7a": 8736,
      "67f1": 8737,
      "2752": 8738,
      "4160": 8739,
      "2d36": 8740,
      "b60c": 8741,
      "3310": 8742,
      "4c76": 8743,
      "016e": 8744,
      "623c": 8745,
      "694c": 8746,
      "af31": 8747,
      "f941": 8748,
      "eae0": 8749,
      "2c01": 8750,
      "346c": 8751,
      "afdb": 8752,
      "bdaf": 8753,
      "9177": 8754,
      "9999": 8755,
      "6ced": 8756,
      "6dc8": 8757,
      "b81c": 8758,
      "1701": 8759,
      "1535": 8760,
      "45c1": 8761,
      "6141": 8762,
      "327b": 8763,
      "527a": 8764,
      "1e08": 8765,
      "1718": 8766,
      "162a": 8767,
      "3877": 8768,
      "2b7b": 8769,
      "6d21": 8770,
      "80dd": 8771,
      "eabd": 8772,
      "7463": 8773,
      "da73": 8774,
      "3c5b": 8775,
      "a26b": 8776,
      "6d1e": 8777,
      "863c": 8778,
      "43bf": 8779,
      "11cc": 8780,
      "5f0e": 8781,
      "7610": 8782,
      "4c33": 8783,
      "5879": 8784,
      "3a8a": 8785,
      "f2ff": 8786,
      "6779": 8787,
      "5169": 8788,
      "3274": 8789,
      "4a21": 8790,
      "5877": 8791,
      "838d": 8792,
      "080b": 8793,
      "3515": 8794,
      "b615": 8795,
      "ecee": 8796,
      "fbfd": 8797,
      "63a2": 8798,
      "22c6": 8799,
      "565f": 8800,
      "1073": 8801,
      "e6a7": 8802,
      "fa62": 8803,
      "049f": 8804,
      "595c": 8805,
      "407d": 8806,
      "8376": 8807,
      "774c": 8808,
      "f7f9": 8809,
      "85a2": 8810,
      "464d": 8811,
      "33ff": 8812,
      "33ce": 8813,
      "59ee": 8814,
      "1973": 8815,
      "a0ff": 8816,
      "d4d8": 8817,
      "dc89": 8818,
      "7574": 8819,
      "01fd": 8820,
      "c024": 8821,
      "8749": 8822,
      "cdd8": 8823,
      "41d4": 8824,
      "1c3c": 8825,
      "a2e0": 8826,
      "2c36": 8827,
      "4064": 8828,
      "a3e6": 8829,
      "bdc1": 8830,
      "526a": 8831,
      "0561": 8832,
      "e840": 8833,
      "021d": 8834,
      "137e": 8835,
      "4efa": 8836,
      "630a": 8837,
      "e8e8": 8838,
      "ff2c": 8839,
      "4236": 8840,
      "ff6f": 8841,
      "0847": 8842,
      "ada0": 8843,
      "3a93": 8844,
      "70b5": 8845,
      "3701": 8846,
      "c633": 8847,
      "6df0": 8848,
      "3552": 8849,
      "67cd": 8850,
      "c1da": 8851,
      "6841": 8852,
      "e62f": 8853,
      "4a32": 8854,
      "cdff": 8855,
      "d1bd": 8856,
      "9d03": 8857,
      "b1ff": 8858,
      "e5b2": 8859,
      "7e45": 8860,
      "8425": 8861,
      "e8db": 8862,
      "556b": 8863,
      "2f63": 8864,
      "4a4a": 8865,
      "5a63": 8866,
      "ca73": 8867,
      "2612": 8868,
      "b3f0": 8869,
      "3903": 8870,
      "ce5a": 8871,
      "8fbc": 8872,
      "bf43": 8873,
      "fd90": 8874,
      "6a37": 8875,
      "764b": 8876,
      "52fa": 8877,
      "50fd": 8878,
      "d7d2": 8879,
      "7050": 8880,
      "3f80": 8881,
      "c130": 8882,
      "27ff": 8883,
      "b9d0": 8884,
      "1eba": 8885,
      "7e18": 8886,
      "d149": 8887,
      "583a": 8888,
      "7cab": 8889,
      "e891": 8890,
      "0111": 8891,
      "dcff": 8892,
      "b64a": 8893,
      "5c70": 8894,
      "3c80": 8895,
      "4b79": 8896,
      "6840": 8897,
      "7235": 8898,
      "ba90": 8899,
      "530a": 8900,
      "3949": 8901,
      "6ea1": 8902,
      "6d10": 8903,
      "c122": 8904,
      "3011": 8905,
      "c010": 8906,
      "c853": 8907,
      "2f58": 8908,
      "3b80": 8909,
      "0c25": 8910,
      "e745": 8911,
      "a095": 8912,
      "7327": 8913,
      "7737": 8914,
      "010e": 8915,
      "6dd0": 8916,
      "623d": 8917,
      "2601": 8918,
      "3270": 8919,
      "eaf9": 8920,
      "d949": 8921,
      "02fd": 8922,
      "f0ff": 8923,
      "2d66": 8924,
      "3250": 8925,
      "09fa": 8926,
      "e170": 8927,
      "0668": 8928,
      "4473": 8929,
      "3874": 8930,
      "fee1": 8931,
      "9a7e": 8932,
      "4156": 8933,
      "7001": 8934,
      "b2e0": 8935,
      "5573": 8936,
      "1972": 8937,
      "7ef0": 8938,
      "4728": 8939,
      "effe": 8940,
      "0a64": 8941,
      "a4ed": 8942,
      "fef1": 8943,
      "01c5": 8944,
      "e29e": 8945,
      "c3f2": 8946,
      "0b15": 8947,
      "01c7": 8948,
      "8101": 8949,
      "6658": 8950,
      "782e": 8951,
      "d8ad": 8952,
      "66bf": 8953,
      "f847": 8954,
      "f5a6": 8955,
      "623f": 8956,
      "f2fe": 8957,
      "4b10": 8958,
      "90c3": 8959,
      "76ff": 8960,
      "a4a9": 8961,
      "2220": 8962,
      "2293": 8963,
      "4967": 8964,
      "2d57": 8965,
      "4d99": 8966,
      "b293": 8967,
      "ba7a": 8968,
      "c040": 8969,
      "613a": 8970,
      "e909": 8971,
      "4f41": 8972,
      "196e": 8973,
      "8e7c": 8974,
      "1b69": 8975,
      "7a6c": 8976,
      "4d59": 8977,
      "326d": 8978,
      "8799": 8979,
      "ffb7": 8980,
      "36c2": 8981,
      "d85a": 8982,
      "6501": 8983,
      "270e": 8984,
      "c6d2": 8985,
      "f4ff": 8986,
      "8e89": 8987,
      "8fe5": 8988,
      "6938": 8989,
      "41e1": 8990,
      "5241": 8991,
      "16bb": 8992,
      "6e55": 8993,
      "5070": 8994,
      "7f56": 8995,
      "daff": 8996,
      "a8f4": 8997,
      "836e": 8998,
      "5480": 8999,
      "7041": 9000,
      "b260": 9001,
      "67ff": 9002,
      "1f99": 9003,
      "6d08": 9004,
      "5392": 9005,
      "e383": 9006,
      "f0a8": 9007,
      "bb01": 9008,
      "4ea0": 9009,
      "3a61": 9010,
      "d4d1": 9011,
      "4955": 9012,
      "a85b": 9013,
      "5779": 9014,
      "1b23": 9015,
      "3248": 9016,
      "7ebe": 9017,
      "01a0": 9018,
      "027d": 9019,
      "3273": 9020,
      "0258": 9021,
      "328a": 9022,
      "0fff": 9023,
      "324a": 9024,
      "43b8": 9025,
      "5951": 9026,
      "938c": 9027,
      "750e": 9028,
      "2e06": 9029,
      "6868": 9030,
      "334f": 9031,
      "ecc4": 9032,
      "bb4b": 9033,
      "fefa": 9034,
      "2adb": 9035,
      "6ebe": 9036,
      "ffc9": 9037,
      "b088": 9038,
      "0112": 9039,
      "062c": 9040,
      "4790": 9041,
      "68c8": 9042,
      "3258": 9043,
      "3a79": 9044,
      "302a": 9045,
      "69bd": 9046,
      "433f": 9047,
      "aea9": 9048,
      "8f99": 9049,
      "e90a": 9050,
      "ff26": 9051,
      "edaf": 9052,
      "e6bf": 9053,
      "f1bd": 9054,
      "3753": 9055,
      "023c": 9056,
      "3342": 9057,
      "0a70": 9058,
      "6953": 9059,
      "af0c": 9060,
      "3a5b": 9061,
      "684e": 9062,
      "081e": 9063,
      "35d8": 9064,
      "02fa": 9065,
      "b4ca": 9066,
      "0b71": 9067,
      "253f": 9068,
      "ffe3": 9069,
      "5ab1": 9070,
      "66f0": 9071,
      "ad09": 9072,
      "b5be": 9073,
      "1c01": 9074,
      "4c01": 9075,
      "0937": 9076,
      "6c47": 9077,
      "83ee": 9078,
      "e669": 9079,
      "02b0": 9080,
      "a601": 9081,
      "2f47": 9082,
      "32a7": 9083,
      "7960": 9084,
      "a194": 9085,
      "22f2": 9086,
      "09ea": 9087,
      "d1db": 9088,
      "1a4d": 9089,
      "6d1d": 9090,
      "3cec": 9091,
      "adfc": 9092,
      "ad8e": 9093,
      "f5e5": 9094,
      "2c56": 9095,
      "a613": 9096,
      "6d18": 9097,
      "7bff": 9098,
      "7ea7": 9099,
      "0207": 9100,
      "5a49": 9101,
      "360b": 9102,
      "24ec": 9103,
      "19ea": 9104,
      "e74d": 9105,
      "ef44": 9106,
      "e1a5": 9107,
      "827e": 9108,
      "d4b6": 9109,
      "e071": 9110,
      "6e38": 9111,
      "7d2a": 9112,
      "ecb3": 9113,
      "db1b": 9114,
      "72f9": 9115,
      "edfd": 9116,
      "7b6f": 9117,
      "6d12": 9118,
      "61fd": 9119,
      "fe7b": 9120,
      "1840": 9121,
      "7c30": 9122,
      "6758": 9123,
      "3149": 9124,
      "9e2a": 9125,
      "e8ac": 9126,
      "96ff": 9127,
      "597a": 9128,
      "b908": 9129,
      "2f35": 9130,
      "d6ff": 9131,
      "e3f0": 9132,
      "e9fa": 9133,
      "4e4e": 9134,
      "297d": 9135,
      "e7fe": 9136,
      "3679": 9137,
      "7cff": 9138,
      "187e": 9139,
      "e163": 9140,
      "056a": 9141,
      "827f": 9142,
      "5a55": 9143,
      "300e": 9144,
      "eaf0": 9145,
      "496c": 9146,
      "2f29": 9147,
      "abf1": 9148,
      "2e01": 9149,
      "6760": 9150,
      "5d6d": 9151,
      "4a58": 9152,
      "a118": 9153,
      "5c90": 9154,
      "6151": 9155,
      "2634": 9156,
      "a503": 9157,
      "3adb": 9158,
      "5ab8": 9159,
      "69ec": 9160,
      "1f09": 9161,
      "c2f2": 9162,
      "4015": 9163,
      "9276": 9164,
      "d2a1": 9165,
      "7862": 9166,
      "7545": 9167,
      "04cc": 9168,
      "7557": 9169,
      "6bff": 9170,
      "f661": 9171,
      "73ff": 9172,
      "80d1": 9173,
      "b805": 9174,
      "74c6": 9175,
      "e4ba": 9176,
      "df02": 9177,
      "a823": 9178,
      "576d": 9179,
      "784a": 9180,
      "021f": 9181,
      "3a47": 9182,
      "9afe": 9183,
      "b57c": 9184,
      "0f32": 9185,
      "d312": 9186,
      "2b36": 9187,
      "f1c1": 9188,
      "0908": 9189,
      "2963": 9190,
      "caff": 9191,
      "f6f0": 9192,
      "ec32": 9193,
      "2f73": 9194,
      "021a": 9195,
      "1004": 9196,
      "8e3a": 9197,
      "3964": 9198,
      "0b44": 9199,
      "1808": 9200,
      "6d1b": 9201,
      "0121": 9202,
      "270c": 9203,
      "d43e": 9204,
      "3afa": 9205,
      "7a17": 9206,
      "1b04": 9207,
      "27d3": 9208,
      "f940": 9209,
      "4622": 9210,
      "3f2e": 9211,
      "ecc9": 9212,
      "4e7c": 9213,
      "0726": 9214,
      "5b4e": 9215,
      "5f6e": 9216,
      "3090": 9217,
      "c131": 9218,
      "1a41": 9219,
      "0670": 9220,
      "bcff": 9221,
      "3143": 9222,
      "f5ec": 9223,
      "2ae1": 9224,
      "1efc": 9225,
      "434c": 9226,
      "6348": 9227,
      "4f38": 9228,
      "742b": 9229,
      "e1ac": 9230,
      "f287": 9231,
      "40f0": 9232,
      "2bdb": 9233,
      "fe05": 9234,
      "2247": 9235,
      "5978": 9236,
      "ad75": 9237,
      "e1ad": 9238,
      "5e6d": 9239,
      "d23e": 9240,
      "5608": 9241,
      "2077": 9242,
      "2c47": 9243,
      "bd7d": 9244,
      "4961": 9245,
      "6034": 9246,
      "4c61": 9247,
      "4ab6": 9248,
      "09f2": 9249,
      "0132": 9250,
      "e0e3": 9251,
      "cdb6": 9252,
      "fff4": 9253,
      "b8ad": 9254,
      "2dff": 9255,
      "4178": 9256,
      "4f71": 9257,
      "e8b1": 9258,
      "4c6d": 9259,
      "eb9e": 9260,
      "84c6": 9261,
      "c168": 9262,
      "4923": 9263,
      "feae": 9264,
      "134a": 9265,
      "a1b3": 9266,
      "30b3": 9267,
      "5632": 9268,
      "7e29": 9269,
      "3d93": 9270,
      "7090": 9271,
      "c1ad": 9272,
      "b1a4": 9273,
      "ff2b": 9274,
      "eeee": 9275,
      "6d19": 9276,
      "2f4b": 9277,
      "8804": 9278,
      "b652": 9279,
      "1306": 9280,
      "b1ad": 9281,
      "0350": 9282,
      "3752": 9283,
      "492f": 9284,
      "02eb": 9285,
      "72fa": 9286,
      "837f": 9287,
      "18f3": 9288,
      "526f": 9289,
      "2868": 9290,
      "0419": 9291,
      "ff50": 9292,
      "ae30": 9293,
      "5cff": 9294,
      "8c01": 9295,
      "c148": 9296,
      "644e": 9297,
      "32c2": 9298,
      "deff": 9299,
      "3244": 9300,
      "6644": 9301,
      "9881": 9302,
      "a009": 9303,
      "0809": 9304,
      "2fff": 9305,
      "81dc": 9306,
      "eec4": 9307,
      "c121": 9308,
      "01a5": 9309,
      "02b2": 9310,
      "0952": 9311,
      "6d07": 9312,
      "3403": 9313,
      "0a52": 9314,
      "372f": 9315,
      "516a": 9316,
      "01ee": 9317,
      "48f1": 9318,
      "f0fe": 9319,
      "6a66": 9320,
      "6446": 9321,
      "590e": 9322,
      "40db": 9323,
      "03ef": 9324,
      "3e84": 9325,
      "0147": 9326,
      "ea90": 9327,
      "ff03": 9328,
      "fb7d": 9329,
      "32e3": 9330,
      "5127": 9331,
      "6035": 9332,
      "0f20": 9333,
      "4890": 9334,
      "3a43": 9335,
      "5567": 9336,
      "85ff": 9337,
      "ff2a": 9338,
      "019b": 9339,
      "8aff": 9340,
      "368c": 9341,
      "487c": 9342,
      "4162": 9343,
      "b9b4": 9344,
      "3cb9": 9345,
      "58e9": 9346,
      "c85a": 9347,
      "6e66": 9348,
      "3566": 9349,
      "ae31": 9350,
      "5a48": 9351,
      "a59b": 9352,
      "245a": 9353,
      "3259": 9354,
      "4864": 9355,
      "d1c1": 9356,
      "a383": 9357,
      "21bd": 9358,
      "3513": 9359,
      "7579": 9360,
      "204c": 9361,
      "76a8": 9362,
      "72e0": 9363,
      "ff7c": 9364,
      "bbf0": 9365,
      "4b0d": 9366,
      "3c28": 9367,
      "ac4e": 9368,
      "bea8": 9369,
      "fb9e": 9370,
      "e6be": 9371,
      "7432": 9372,
      "4e24": 9373,
      "d7d8": 9374,
      "ecdf": 9375,
      "3470": 9376,
      "a1a4": 9377,
      "4d41": 9378,
      "190f": 9379,
      "7d01": 9380,
      "48c8": 9381,
      "927e": 9382,
      "adff": 9383,
      "eaff": 9384,
      "76be": 9385,
      "65ed": 9386,
      "6f09": 9387,
      "67b1": 9388,
      "ff2d": 9389,
      "3245": 9390,
      "3360": 9391,
      "2618": 9392,
      "335b": 9393,
      "e9b5": 9394,
      "5783": 9395,
      "84b4": 9396,
      "1901": 9397,
      "1e7c": 9398,
      "4ed3": 9399,
      "7253": 9400,
      "8f8a": 9401,
      "5559": 9402,
      "ce42": 9403,
      "fddf": 9404,
      "b43e": 9405,
      "c650": 9406,
      "4501": 9407,
      "b465": 9408,
      "889e": 9409,
      "febf": 9410,
      "7974": 9411,
      "dc09": 9412,
      "70e1": 9413,
      "65a2": 9414,
      "6330": 9415,
      "adc1": 9416,
      "aeff": 9417,
      "37ff": 9418,
      "b84e": 9419,
      "d2ff": 9420,
      "ed13": 9421,
      "ff2f": 9422,
      "4ed2": 9423,
      "6d1f": 9424,
      "fde1": 9425,
      "2f77": 9426,
      "8973": 9427,
      "61d1": 9428,
      "70fa": 9429,
      "3625": 9430,
      "b261": 9431,
      "3390": 9432,
      "0820": 9433,
      "f631": 9434,
      "ff30": 9435,
      "736e": 9436,
      "ab61": 9437,
      "47a2": 9438,
      "82fe": 9439,
      "74cf": 9440,
      "b4ed": 9441,
      "6960": 9442,
      "3662": 9443,
      "35c1": 9444,
      "7349": 9445,
      "325a": 9446,
      "3268": 9447,
      "556d": 9448,
      "3fa0": 9449,
      "7a86": 9450,
      "2d65": 9451,
      "69fc": 9452,
      "67b8": 9453,
      "8125": 9454,
      "5d22": 9455,
      "b109": 9456,
      "2e5a": 9457,
      "5bfc": 9458,
      "5542": 9459,
      "0aff": 9460,
      "085d": 9461,
      "bdff": 9462,
      "6e46": 9463,
      "28d0": 9464,
      "b352": 9465,
      "c383": 9466,
      "d8e9": 9467,
      "310c": 9468,
      "5b37": 9469,
      "7591": 9470,
      "75cd": 9471,
      "f135": 9472,
      "3221": 9473,
      "dd99": 9474,
      "ecaf": 9475,
      "8be6": 9476,
      "553f": 9477,
      "7ffe": 9478,
      "ed2e": 9479,
      "37c2": 9480,
      "1559": 9481,
      "b824": 9482,
      "fb8e": 9483,
      "010f": 9484,
      "3242": 9485,
      "0409": 9486,
      "6c38": 9487,
      "674d": 9488,
      "a8a6": 9489,
      "72ff": 9490,
      "ecc6": 9491,
      "096f": 9492,
      "7aff": 9493,
      "7a54": 9494,
      "08fa": 9495,
      "f02c": 9496,
      "6a78": 9497,
      "a918": 9498,
      "3088": 9499,
      "7a07": 9500,
      "a1b2": 9501,
      "6cff": 9502,
      "5b79": 9503,
      "7313": 9504,
      "5458": 9505,
      "4134": 9506,
      "bedb": 9507,
      "e0fd": 9508,
      "47d3": 9509,
      "484d": 9510,
      "3255": 9511,
      "c7fb": 9512,
      "efd4": 9513,
      "4944": 9514,
      "de43": 9515,
      "49ff": 9516,
      "75ff": 9517,
      "ff3b": 9518,
      "4e39": 9519,
      "4a83": 9520,
      "51d4": 9521,
      "3249": 9522,
      "e279": 9523,
      "6474": 9524,
      "ccff": 9525,
      "c012": 9526,
      "2342": 9527,
      "af30": 9528,
      "7073": 9529,
      "ffea": 9530,
      "1b6e": 9531,
      "7358": 9532,
      "24cb": 9533,
      "5bd0": 9534,
      "390d": 9535,
      "87f5": 9536,
      "c9cd": 9537,
      "7bed": 9538,
      "ffe5": 9539,
      "4a51": 9540,
      "465a": 9541,
      "7a87": 9542,
      "6136": 9543,
      "d8ed": 9544,
      "4c4f": 9545,
      "4c57": 9546,
      "ff25": 9547,
      "ff0c": 9548,
      "fde3": 9549,
      "1b67": 9550,
      "938a": 9551,
      "4e34": 9552,
      "d8c9": 9553,
      "081f": 9554,
      "d643": 9555,
      "dd02": 9556,
      "1067": 9557,
      "3e62": 9558,
      "5c08": 9559,
      "5327": 9560,
      "716a": 9561,
      "a2a6": 9562,
      "6eb1": 9563,
      "6544": 9564,
      "136e": 9565,
      "1f0f": 9566,
      "6020": 9567,
      "4e61": 9568,
      "b925": 9569,
      "32cc": 9570,
      "4238": 9571,
      "c8bd": 9572,
      "3bff": 9573,
      "9e33": 9574,
      "c599": 9575,
      "d5c1": 9576,
      "fe31": 9577,
      "ffce": 9578,
      "5661": 9579,
      "4675": 9580,
      "2371": 9581,
      "bfb8": 9582,
      "7a64": 9583,
      "a2d7": 9584,
      "7eef": 9585,
      "4e73": 9586,
      "021e": 9587,
      "4b9b": 9588,
      "2fda": 9589,
      "5e23": 9590,
      "0181": 9591,
      "b104": 9592,
      "d6fe": 9593,
      "29b4": 9594,
      "0156": 9595,
      "2593": 9596,
      "eded": 9597,
      "7501": 9598,
      "ff4e": 9599,
      "d0da": 9600,
      "01ec": 9601,
      "16b9": 9602,
      "688d": 9603,
      "55f1": 9604,
      "fea8": 9605,
      "8501": 9606,
      "5a6b": 9607,
      "6603": 9608,
      "d7d9": 9609,
      "316e": 9610,
      "2260": 9611,
      "6044": 9612,
      "2f28": 9613,
      "5406": 9614,
      "a4ff": 9615,
      "23f0": 9616,
      "fe61": 9617,
      "2762": 9618,
      "e1fd": 9619,
      "234e": 9620,
      "b918": 9621,
      "2557": 9622,
      "5be6": 9623,
      "bd01": 9624,
      "a81c": 9625,
      "6040": 9626,
      "d427": 9627,
      "3cc7": 9628,
      "b9d1": 9629,
      "486d": 9630,
      "ed2d": 9631,
      "3467": 9632,
      "41cd": 9633,
      "2851": 9634,
      "4667": 9635,
      "4e35": 9636,
      "480c": 9637,
      "7fee": 9638,
      "c10f": 9639,
      "5a50": 9640,
      "bb69": 9641,
      "6a68": 9642,
      "3d57": 9643,
      "015e": 9644,
      "fafd": 9645,
      "eced": 9646,
      "ff2e": 9647,
      "6edd": 9648,
      "a959": 9649,
      "75fd": 9650,
      "d362": 9651,
      "6eee": 9652,
      "a51e": 9653,
      "a643": 9654,
      "353a": 9655,
      "ba79": 9656,
      "340f": 9657,
      "3183": 9658,
      "4aa8": 9659,
      "ea87": 9660,
      "9381": 9661,
      "2974": 9662,
      "0f37": 9663,
      "595d": 9664,
      "784e": 9665,
      "e203": 9666,
      "84ff": 9667,
      "305c": 9668,
      "3801": 9669,
      "e5bf": 9670,
      "cc26": 9671,
      "14ad": 9672,
      "50d8": 9673,
      "fe60": 9674,
      "153c": 9675,
      "ea17": 9676,
      "8a01": 9677,
      "3473": 9678,
      "6804": 9679,
      "a815": 9680,
      "e985": 9681,
      "71ff": 9682,
      "d750": 9683,
      "666a": 9684,
      "df49": 9685,
      "bd5c": 9686,
      "1f74": 9687,
      "483d": 9688,
      "e079": 9689,
      "bffc": 9690,
      "32ce": 9691,
      "b890": 9692,
      "b5ff": 9693,
      "d8ff": 9694,
      "3750": 9695,
      "5031": 9696,
      "3f0c": 9697,
      "3923": 9698,
      "ecab": 9699,
      "02b3": 9700,
      "653e": 9701,
      "3862": 9702,
      "b43f": 9703,
      "330e": 9704,
      "70e3": 9705,
      "6eff": 9706,
      "8733": 9707,
      "74c0": 9708,
      "384a": 9709,
      "40c1": 9710,
      "d27a": 9711,
      "88ea": 9712,
      "a014": 9713,
      "b303": 9714,
      "4c32": 9715,
      "a851": 9716,
      "28ad": 9717,
      "6111": 9718,
      "3277": 9719,
      "2079": 9720,
      "c05b": 9721,
      "8f09": 9722,
      "7e64": 9723,
      "8890": 9724,
      "ff35": 9725,
      "0115": 9726,
      "ffe4": 9727,
      "4d4c": 9728,
      "dffe": 9729,
      "a189": 9730,
      "f9fe": 9731,
      "485a": 9732,
      "3449": 9733,
      "aca8": 9734,
      "4262": 9735,
      "b955": 9736,
      "a51f": 9737,
      "ff73": 9738,
      "0608": 9739,
      "73f9": 9740,
      "3267": 9741,
      "586c": 9742,
      "1fe5": 9743,
      "3950": 9744,
      "fde2": 9745,
      "6f4e": 9746,
      "e7dd": 9747,
      "1175": 9748,
      "5a91": 9749,
      "4d4a": 9750,
      "be04": 9751,
      "ac1b": 9752,
      "a0b2": 9753,
      "1b01": 9754,
      "03fa": 9755,
      "2de5": 9756,
      "633d": 9757,
      "5aff": 9758,
      "a2f9": 9759,
      "d6d8": 9760,
      "50c9": 9761,
      "6701": 9762,
      "5501": 9763,
      "af85": 9764,
      "13f6": 9765,
      "451e": 9766,
      "3241": 9767,
      "6a52": 9768,
      "513a": 9769,
      "4a35": 9770,
      "e979": 9771,
      "71fa": 9772,
      "2e62": 9773,
      "c37a": 9774,
      "6cb3": 9775,
      "fb01": 9776,
      "3559": 9777,
      "a7a8": 9778,
      "a11c": 9779,
      "ff32": 9780,
      "a03a": 9781,
      "52f3": 9782,
      "aa01": 9783,
      "e2bc": 9784,
      "022b": 9785,
      "1854": 9786,
      "a347": 9787,
      "610d": 9788,
      "2a47": 9789,
      "ed26": 9790,
      "7a6d": 9791,
      "c025": 9792,
      "cf49": 9793,
      "5373": 9794,
      "2924": 9795,
      "8090": 9796,
      "8911": 9797,
      "364c": 9798,
      "9060": 9799,
      "0206": 9800,
      "5bfb": 9801,
      "6352": 9802,
      "d3c3": 9803,
      "b3fd": 9804,
      "4f55": 9805,
      "bbdb": 9806,
      "621b": 9807,
      "a80c": 9808,
      "4ad0": 9809,
      "6a6e": 9810,
      "c675": 9811,
      "e179": 9812,
      "6468": 9813,
      "f9e7": 9814,
      "ff55": 9815,
      "e6e7": 9816,
      "b45b": 9817,
      "301c": 9818,
      "4909": 9819,
      "f16d": 9820,
      "32fd": 9821,
      "664a": 9822,
      "7c70": 9823,
      "1c32": 9824,
      "fdde": 9825,
      "6c2d": 9826,
      "359b": 9827,
      "6332": 9828,
      "43b6": 9829,
      "bd9e": 9830,
      "51c9": 9831,
      "584b": 9832,
      "e732": 9833,
      "e914": 9834,
      "7159": 9835,
      "5124": 9836,
      "5724": 9837,
      "9401": 9838,
      "777a": 9839,
      "ac9b": 9840,
      "0239": 9841,
      "2ae0": 9842,
      "f31a": 9843,
      "cd36": 9844,
      "4e49": 9845,
      "0143": 9846,
      "bffe": 9847,
      "6608": 9848,
      "b6da": 9849,
      "022e": 9850,
      "3228": 9851,
      "79f2": 9852,
      "6c01": 9853,
      "a041": 9854,
      "4147": 9855,
      "4d51": 9856,
      "421e": 9857,
      "1e03": 9858,
      "537a": 9859,
      "0bc9": 9860,
      "e7fc": 9861,
      "bfda": 9862,
      "4aae": 9863,
      "7d28": 9864,
      "fb97": 9865,
      "6618": 9866,
      "abf0": 9867,
      "ac01": 9868,
      "809e": 9869,
      "6154": 9870,
      "326a": 9871,
      "0981": 9872,
      "2f01": 9873,
      "7c23": 9874,
      "1f63": 9875,
      "6990": 9876,
      "647e": 9877,
      "a9ff": 9878,
      "373a": 9879,
      "3044": 9880,
      "61c1": 9881,
      "02ae": 9882,
      "464e": 9883,
      "4454": 9884,
      "989f": 9885,
      "023e": 9886,
      "7201": 9887,
      "ffe6": 9888,
      "a7fe": 9889,
      "0298": 9890,
      "0315": 9891,
      "e301": 9892,
      "a00c": 9893,
      "023b": 9894,
      "34c8": 9895,
      "3448": 9896,
      "cdc1": 9897,
      "fe30": 9898,
      "65ec": 9899,
      "4d69": 9900,
      "40e0": 9901,
      "3929": 9902,
      "cc98": 9903,
      "c115": 9904,
      "a639": 9905,
      "fdea": 9906,
      "02c2": 9907,
      "02d7": 9908,
      "3a46": 9909,
      "1813": 9910,
      "b194": 9911,
      "804c": 9912,
      "fe04": 9913,
      "4079": 9914,
      "4aff": 9915,
      "765f": 9916,
      "b6ff": 9917,
      "fea1": 9918,
      "b2ea": 9919,
      "05ff": 9920,
      "3966": 9921,
      "6801": 9922,
      "a13d": 9923,
      "02ef": 9924,
      "01c6": 9925,
      "5301": 9926,
      "0b76": 9927,
      "0b7f": 9928,
      "7fd4": 9929,
      "473a": 9930,
      "2343": 9931,
      "f35a": 9932,
      "8490": 9933,
      "0804": 9934,
      "03c9": 9935,
      "7455": 9936,
      "8701": 9937,
      "ac29": 9938,
      "b5a6": 9939,
      "5772": 9940,
      "752c": 9941,
      "ba52": 9942,
      "3e74": 9943,
      "086d": 9944,
      "c288": 9945,
      "df50": 9946,
      "1b64": 9947,
      "0ada": 9948,
      "5a24": 9949,
      "2a03": 9950,
      "bcc2": 9951,
      "3b61": 9952,
      "adbf": 9953,
      "3167": 9954,
      "774d": 9955,
      "c5f9": 9956,
      "287a": 9957,
      "ff1d": 9958,
      "b83a": 9959,
      "1076": 9960,
      "614c": 9961,
      "012a": 9962,
      "75ab": 9963,
      "137f": 9964,
      "fe22": 9965,
      "2005": 9966,
      "feb0": 9967,
      "4e74": 9968,
      "f8fd": 9969,
      "0238": 9970,
      "ff76": 9971,
      "5780": 9972,
      "028f": 9973,
      "4718": 9974,
      "ecc8": 9975,
      "c9f9": 9976,
      "c119": 9977,
      "85c5": 9978,
      "e0bd": 9979,
      "baff": 9980,
      "3d1c": 9981,
      "314a": 9982,
      "bfdb": 9983,
      "f94f": 9984,
      "2a8a": 9985,
      "5351": 9986,
      "0151": 9987,
      "0381": 9988,
      "e6fe": 9989,
      "eccf": 9990,
      "51e1": 9991,
      "97f5": 9992,
      "4d4f": 9993,
      "3401": 9994,
      "ad79": 9995,
      "1054": 9996,
      "48cc": 9997,
      "f2fc": 9998,
      "0263": 9999,
      "0728": 10000,
      "69bc": 10001,
      "51b5": 10002,
      "1e89": 10003,
      "b014": 10004,
      "375a": 10005,
      "ff24": 10006,
      "69fd": 10007,
      "753d": 10008,
      "494c": 10009,
      "3a62": 10010,
      "c045": 10011,
      "2652": 10012,
      "dd08": 10013,
      "a7ff": 10014,
      "e1d8": 10015,
      "4246": 10016,
      "f8fe": 10017,
      "0a50": 10018,
      "586f": 10019,
      "be4a": 10020,
      "424f": 10021,
      "ff1f": 10022,
      "742e": 10023,
      "d3ff": 10024,
      "48ef": 10025,
      "a8ff": 10026,
      "feb1": 10027,
      "43e8": 10028,
      "6866": 10029,
      "a5c7": 10030,
      "6248": 10031,
      "7e77": 10032,
      "0296": 10033,
      "3e15": 10034,
      "4678": 10035,
      "d853": 10036,
      "b990": 10037,
      "3e01": 10038,
[...]
